{
  "version": "1.0",
  "truncation": null,
  "padding": null,
  "added_tokens": [
    {
      "id": 0,
      "content": "<|pad|>",
      "single_word": false,
      "lstrip": false,
      "rstrip": false,
      "normalized": false,
      "special": true
    },
    {
      "id": 1,
      "content": "<|unk|>",
      "single_word": false,
      "lstrip": false,
      "rstrip": false,
      "normalized": false,
      "special": true
    },
    {
      "id": 2,
      "content": "<|bos|>",
      "single_word": false,
      "lstrip": false,
      "rstrip": false,
      "normalized": false,
      "special": true
    },
    {
      "id": 3,
      "content": "<|eos|>",
      "single_word": false,
      "lstrip": false,
      "rstrip": false,
      "normalized": false,
      "special": true
    },
    {
      "id": 4,
      "content": "<|context_start|>",
      "single_word": false,
      "lstrip": false,
      "rstrip": false,
      "normalized": false,
      "special": true
    },
    {
      "id": 5,
      "content": "<|context_end|>",
      "single_word": false,
      "lstrip": false,
      "rstrip": false,
      "normalized": false,
      "special": true
    },
    {
      "id": 6,
      "content": "<|target_start|>",
      "single_word": false,
      "lstrip": false,
      "rstrip": false,
      "normalized": false,
      "special": true
    },
    {
      "id": 7,
      "content": "<|target_end|>",
      "single_word": false,
      "lstrip": false,
      "rstrip": false,
      "normalized": false,
      "special": true
    },
    {
      "id": 8,
      "content": "<|risk_low|>",
      "single_word": false,
      "lstrip": false,
      "rstrip": false,
      "normalized": false,
      "special": true
    },
    {
      "id": 9,
      "content": "<|risk_medium|>",
      "single_word": false,
      "lstrip": false,
      "rstrip": false,
      "normalized": false,
      "special": true
    },
    {
      "id": 10,
      "content": "<|risk_high|>",
      "single_word": false,
      "lstrip": false,
      "rstrip": false,
      "normalized": false,
      "special": true
    },
    {
      "id": 11,
      "content": "<|risk_critical|>",
      "single_word": false,
      "lstrip": false,
      "rstrip": false,
      "normalized": false,
      "special": true
    },
    {
      "id": 12,
      "content": "<|entity_person|>",
      "single_word": false,
      "lstrip": false,
      "rstrip": false,
      "normalized": false,
      "special": true
    },
    {
      "id": 13,
      "content": "<|entity_org|>",
      "single_word": false,
      "lstrip": false,
      "rstrip": false,
      "normalized": false,
      "special": true
    },
    {
      "id": 14,
      "content": "<|entity_geo|>",
      "single_word": false,
      "lstrip": false,
      "rstrip": false,
      "normalized": false,
      "special": true
    }
  ],
  "normalizer": {
    "type": "NFKC"
  },
  "pre_tokenizer": {
    "type": "Sequence",
    "pretokenizers": [
      {
        "type": "Whitespace"
      },
      {
        "type": "Digits",
        "individual_digits": true
      }
    ]
  },
  "post_processor": null,
  "decoder": null,
  "model": {
    "type": "BPE",
    "dropout": null,
    "unk_token": "<|unk|>",
    "continuing_subword_prefix": null,
    "end_of_word_suffix": null,
    "fuse_unk": false,
    "byte_fallback": false,
    "ignore_merges": false,
    "vocab": {
      "<|pad|>": 0,
      "<|unk|>": 1,
      "<|bos|>": 2,
      "<|eos|>": 3,
      "<|context_start|>": 4,
      "<|context_end|>": 5,
      "<|target_start|>": 6,
      "<|target_end|>": 7,
      "<|risk_low|>": 8,
      "<|risk_medium|>": 9,
      "<|risk_high|>": 10,
      "<|risk_critical|>": 11,
      "<|entity_person|>": 12,
      "<|entity_org|>": 13,
      "<|entity_geo|>": 14,
      "!": 15,
      "\"": 16,
      "#": 17,
      "$": 18,
      "%": 19,
      "&": 20,
      "'": 21,
      "(": 22,
      ")": 23,
      "*": 24,
      "+": 25,
      ",": 26,
      "-": 27,
      ".": 28,
      "/": 29,
      "0": 30,
      "1": 31,
      "2": 32,
      "3": 33,
      "4": 34,
      "5": 35,
      "6": 36,
      "7": 37,
      "8": 38,
      "9": 39,
      ":": 40,
      ";": 41,
      "<": 42,
      "=": 43,
      ">": 44,
      "?": 45,
      "@": 46,
      "A": 47,
      "B": 48,
      "C": 49,
      "D": 50,
      "E": 51,
      "F": 52,
      "G": 53,
      "H": 54,
      "I": 55,
      "J": 56,
      "K": 57,
      "L": 58,
      "M": 59,
      "N": 60,
      "O": 61,
      "P": 62,
      "Q": 63,
      "R": 64,
      "S": 65,
      "T": 66,
      "U": 67,
      "V": 68,
      "W": 69,
      "X": 70,
      "Y": 71,
      "Z": 72,
      "[": 73,
      "\\": 74,
      "]": 75,
      "^": 76,
      "_": 77,
      "`": 78,
      "a": 79,
      "b": 80,
      "c": 81,
      "d": 82,
      "e": 83,
      "f": 84,
      "g": 85,
      "h": 86,
      "i": 87,
      "j": 88,
      "k": 89,
      "l": 90,
      "m": 91,
      "n": 92,
      "o": 93,
      "p": 94,
      "q": 95,
      "r": 96,
      "s": 97,
      "t": 98,
      "u": 99,
      "v": 100,
      "w": 101,
      "x": 102,
      "y": 103,
      "z": 104,
      "{": 105,
      "|": 106,
      "}": 107,
      "~": 108,
      "¡": 109,
      "¢": 110,
      "£": 111,
      "¤": 112,
      "¥": 113,
      "¦": 114,
      "§": 115,
      "¨": 116,
      "©": 117,
      "ª": 118,
      "«": 119,
      "¬": 120,
      "®": 121,
      "¯": 122,
      "°": 123,
      "±": 124,
      "²": 125,
      "³": 126,
      "´": 127,
      "µ": 128,
      "¶": 129,
      "·": 130,
      "¸": 131,
      "¹": 132,
      "º": 133,
      "»": 134,
      "¼": 135,
      "½": 136,
      "¾": 137,
      "¿": 138,
      "À": 139,
      "Á": 140,
      "Â": 141,
      "Ã": 142,
      "Ä": 143,
      "Å": 144,
      "Æ": 145,
      "Ç": 146,
      "È": 147,
      "É": 148,
      "Ê": 149,
      "Ë": 150,
      "Ì": 151,
      "Í": 152,
      "Î": 153,
      "Ï": 154,
      "Ð": 155,
      "Ñ": 156,
      "Ò": 157,
      "Ó": 158,
      "Ô": 159,
      "Õ": 160,
      "Ö": 161,
      "×": 162,
      "Ø": 163,
      "Ù": 164,
      "Ú": 165,
      "Û": 166,
      "Ü": 167,
      "Ý": 168,
      "Þ": 169,
      "ß": 170,
      "à": 171,
      "á": 172,
      "â": 173,
      "ã": 174,
      "ä": 175,
      "å": 176,
      "æ": 177,
      "ç": 178,
      "è": 179,
      "é": 180,
      "ê": 181,
      "ë": 182,
      "ì": 183,
      "í": 184,
      "î": 185,
      "ï": 186,
      "ð": 187,
      "ñ": 188,
      "ò": 189,
      "ó": 190,
      "ô": 191,
      "õ": 192,
      "ö": 193,
      "÷": 194,
      "ø": 195,
      "ù": 196,
      "ú": 197,
      "û": 198,
      "ü": 199,
      "ý": 200,
      "þ": 201,
      "ÿ": 202,
      "Ā": 203,
      "ā": 204,
      "Ă": 205,
      "ă": 206,
      "Ą": 207,
      "ą": 208,
      "Ć": 209,
      "ć": 210,
      "Ĉ": 211,
      "ĉ": 212,
      "Ċ": 213,
      "ċ": 214,
      "Č": 215,
      "č": 216,
      "Ď": 217,
      "ď": 218,
      "Đ": 219,
      "đ": 220,
      "Ē": 221,
      "ē": 222,
      "Ĕ": 223,
      "ĕ": 224,
      "Ė": 225,
      "ė": 226,
      "Ę": 227,
      "ę": 228,
      "Ě": 229,
      "ě": 230,
      "Ĝ": 231,
      "ĝ": 232,
      "Ğ": 233,
      "ğ": 234,
      "Ġ": 235,
      "ġ": 236,
      "Ģ": 237,
      "ģ": 238,
      "Ĥ": 239,
      "ĥ": 240,
      "Ħ": 241,
      "ħ": 242,
      "Ĩ": 243,
      "ĩ": 244,
      "Ī": 245,
      "ī": 246,
      "Ĭ": 247,
      "ĭ": 248,
      "Į": 249,
      "į": 250,
      "İ": 251,
      "ı": 252,
      "Ĳ": 253,
      "ĳ": 254,
      "Ĵ": 255,
      "ĵ": 256,
      "Ķ": 257,
      "ķ": 258,
      "ĸ": 259,
      "Ĺ": 260,
      "ĺ": 261,
      "Ļ": 262,
      "ļ": 263,
      "Ľ": 264,
      "ľ": 265,
      "Ŀ": 266,
      "ŀ": 267,
      "Ł": 268,
      "ł": 269,
      "Ń": 270,
      "\":": 271,
      "\",": 272,
      "ti": 273,
      "nt": 274,
      "ar": 275,
      "de": 276,
      "ri": 277,
      "re": 278,
      "co": 279,
      "ce": 280,
      "on": 281,
      "ra": 282,
      "me": 283,
      "st": 284,
      "tion": 285,
      "vi": 286,
      "ac": 287,
      "unt": 288,
      "{\"": 289,
      "_e": 290,
      "nd": 291,
      "or": 292,
      "<|": 293,
      "|>": 294,
      "ed": 295,
      "li": 296,
      "\"}": 297,
      "ve": 298,
      "ca": 299,
      "ci": 300,
      "id": 301,
      "er": 302,
      "devi": 303,
      "DE": 304,
      "ty": 305,
      "device": 306,
      "_id": 307,
      "],": 308,
      "pi": 309,
      "il": 310,
      "ount": 311,
      "et": 312,
      "nce": 313,
      "at": 314,
      "am": 315,
      "DEV": 316,
      "count": 317,
      "ng": 318,
      "tx": 319,
      "amount": 320,
      "ex": 321,
      "lo": 322,
      "NE": 323,
      "ent": 324,
      "action": 325,
      "TX": 326,
      "reci": 327,
      "rail": 328,
      "pient": 329,
      "tx_id": 330,
      "TXN": 331,
      "recipient": 332,
      "[\"": 333,
      "po": 334,
      "arg": 335,
      "time": 336,
      "hi": 337,
      ".\"": 338,
      "ne": 339,
      "ris": 340,
      "di": 341,
      "ran": 342,
      "pri": 343,
      "ba": 344,
      "art": 345,
      "ext": 346,
      "_st": 347,
      "targ": 348,
      "ntext": 349,
      "dence": 350,
      "context": 351,
      "vidence": 352,
      "_end": 353,
      "_evidence": 354,
      "|>{\"": 355,
      "_start": 356,
      "target": 357,
      "mar": 358,
      "\"},": 359,
      "tran": 360,
      "mary": 361,
      "primary": 362,
      "NEF": 363,
      "sto": 364,
      "trans": 365,
      "es": 366,
      "and": 367,
      "cation": 368,
      ".\"],": 369,
      "MA": 370,
      "an": 371,
      "cal": 372,
      "account": 373,
      "se": 374,
      "d_": 375,
      "primary_": 376,
      "BE": 377,
      "IN": 378,
      "su": 379,
      "pp": 380,
      "ED": 381,
      "le": 382,
      "AC": 383,
      "ct": 384,
      "BENEF": 385,
      "line": 386,
      "cu": 387,
      "base": 388,
      "baseline": 389,
      "th": 390,
      "com": 391,
      "transaction": 392,
      "al": 393,
      "fi": 394,
      "ACC": 395,
      "risk": 396,
      "TI": 397,
      "NMA": 398,
      "ory": 399,
      "PP": 400,
      "UNMA": 401,
      "PPED": 402,
      "UNMAPPED": 403,
      "}<|": 404,
      "ting": 405,
      "orting": 406,
      "en": 407,
      "te": 408,
      "comme": 409,
      "ch": 410,
      "ol": 411,
      "PO": 412,
      "gy": 413,
      "location": 414,
      "nde": 415,
      "au": 416,
      "vel": 417,
      "_le": 418,
      "recomme": 419,
      "|><|": 420,
      "er_evidence": 421,
      "typo": 422,
      "counter_evidence": 423,
      "logy": 424,
      "context_end": 425,
      "context_start": 426,
      "target_end": 427,
      "target_start": 428,
      "d_action": 429,
      "primary_typo": 430,
      "supp": 431,
      "risk_le": 432,
      "orting_evidence": 433,
      "nded_action": 434,
      "recommended_action": 435,
      "primary_typology": 436,
      "supporting_evidence": 437,
      "risk_level": 438,
      ".\",": 439,
      "ju": 440,
      "to": 441,
      "TO": 442,
      "mer": 443,
      "stomer": 444,
      "for": 445,
      "\"}<|": 446,
      "ON": 447,
      "veri": 448,
      "la": 449,
      "ction": 450,
      "rical": 451,
      "city": 452,
      "histo": 453,
      "customer": 454,
      "transactions": 455,
      "historical": 456,
      "stri": 457,
      "risdi": 458,
      "jurisdi": 459,
      "jurisdiction": 460,
      "medi": 461,
      "median": 462,
      "verifi": 463,
      "AL": 464,
      "]}<|": 465,
      "ut": 466,
      "reg": 467,
      "POL": 468,
      "cy": 469,
      "atch": 470,
      "ance": 471,
      "erv": 472,
      "AU": 473,
      "_b": 474,
      "acti": 475,
      "INR": 476,
      "strict": 477,
      "RE": 478,
      "PI": 479,
      "verified": 480,
      "ru": 481,
      "enti": 482,
      "ers": 483,
      "_po": 484,
      "licy": 485,
      "_policy": 486,
      "sh": 487,
      "it": 488,
      "IM": 489,
      "sti": 490,
      "AN": 491,
      "ly": 492,
      "[{\"": 493,
      "TO_": 494,
      "LO": 495,
      "lag": 496,
      "be": 497,
      "ere": 498,
      "ist": 499,
      "par": 500,
      "pora": 501,
      "regist": 502,
      "registere": 503,
      "in": 504,
      "E_": 505,
      "IG": 506,
      "TION": 507,
      "NEFT": 508,
      "old": 509,
      "PS": 510,
      "IMPS": 511,
      "resh": 512,
      "UPI": 513,
      "thresh": 514,
      "threshold": 515,
      "ro": 516,
      "achi": 517,
      "bre": 518,
      "Flag": 519,
      "_baseline": 520,
      "account_id": 521,
      "account_baseline": 522,
      "d_city": 523,
      "primary_device": 524,
      "registered_city": 525,
      "aching": 526,
      "breaching": 527,
      "RU": 528,
      "ST": 529,
      "UR": 530,
      "ING": 531,
      "RUC": 532,
      "STRUC": 533,
      "SC": 534,
      "_account": 535,
      "stat": 536,
      "utory": 537,
      "statutory": 538,
      "auth": 539,
      "is": 540,
      ".\"]}<|": 541,
      "AR": 542,
      "LOW": 543,
      "cor": 544,
      "audi": 545,
      "audit": 546,
      "und": 547,
      "ation": 548,
      "av": 549,
      "lim": 550,
      "\"}],": 551,
      "limit": 552,
      "of": 553,
      "strictly": 554,
      "entication": 555,
      "authentication": 556,
      "SAN": 557,
      "SANC": 558,
      "atory": 559,
      "IF": 560,
      "con": 561,
      "NO": 562,
      "NOR": 563,
      "ard": 564,
      "wi": 565,
      "app": 566,
      "HIG": 567,
      "IU": 568,
      "ed_policy": 569,
      "lied_policy": 570,
      "applied_policy": 571,
      "HIGH": 572,
      "EN": 573,
      "_eve": 574,
      "transaction_eve": 575,
      "transaction_event": 576,
      "S_": 577,
      "ll": 578,
      "ob": 579,
      "alu": 580,
      "ck": 581,
      "SM": 582,
      "wor": 583,
      "AT": 584,
      "ame": 585,
      "fund": 586,
      "SANCTION": 587,
      "funds": 588,
      "St": 589,
      "les": 590,
      "ters": 591,
      "als": 592,
      "obs": 593,
      "All": 594,
      "int": 595,
      "CL": 596,
      "EAR": 597,
      "FAU": 598,
      "ITO": 599,
      "LT": 600,
      "L_": 601,
      "MON": 602,
      "OU": 603,
      "ROU": 604,
      "_median": 605,
      "_ru": 606,
      "mpora": 607,
      "rack": 608,
      "vity": 609,
      "velo": 610,
      "ve_ru": 611,
      "DEFAU": 612,
      "typi": 613,
      "andard": 614,
      "MAL_": 615,
      "cal_b": 616,
      "TINE": 617,
      "tempora": 618,
      "form": 619,
      "historical_median": 620,
      "erved": 621,
      "ervals": 622,
      "AUTO_": 623,
      "_batch": 624,
      "activity": 625,
      "active_ru": 626,
      "parame": 627,
      "conform": 628,
      "NORMAL_": 629,
      "Standard": 630,
      "observed": 631,
      "intervals": 632,
      "CLEAR": 633,
      "ITOR": 634,
      "MONITOR": 635,
      "ROUTINE": 636,
      "racket": 637,
      "velocity": 638,
      "DEFAULT": 639,
      "typical_b": 640,
      "temporal": 641,
      "AUTO_CLEAR": 642,
      "activity_batch": 643,
      "active_rules": 644,
      "parameters": 645,
      "NORMAL_ROUTINE": 646,
      "typical_bracket": 647,
      "bad": 648,
      "gh": 649,
      "sub": 650,
      "ect": 651,
      "pli": 652,
      "rate": 653,
      "libe": 654,
      "near": 655,
      "liberate": 656,
      "transf": 657,
      "De": 658,
      "um": 659,
      "fil": 660,
      "filed": 661,
      "[],": 662,
      "Ch": 663,
      "ER": 664,
      "do": 665,
      "GS": 666,
      "RT": 667,
      "RTGS": 668,
      "ur": 669,
      "ment": 670,
      "MED": 671,
      "em": 672,
      "CH": 673,
      "SW": 674,
      "IFT": 675,
      "SWIFT": 676,
      "ez": 677,
      "net": 678,
      "ds": 679,
      "stin": 680,
      "Mand": 681,
      "Fre": 682,
      "dg": 683,
      "dges": 684,
      "->": 685,
      "ESC": 686,
      "FING": 687,
      "FIU": 688,
      "TUR": 689,
      "_re": 690,
      "_limit": 691,
      "_SM": 692,
      "batch": 693,
      "ject": 694,
      "k_e": 695,
      "oid": 696,
      "deliberate": 697,
      "escal": 698,
      "ALAT": 699,
      "REG": 700,
      "TO_FIU": 701,
      "E_TO_FIU": 702,
      "URFING": 703,
      "ING_SM": 704,
      "STRUCTUR": 705,
      "statutory_limit": 706,
      "cords": 707,
      "avoid": 708,
      "work_e": 709,
      "subject": 710,
      "network_e": 711,
      "Mandatory": 712,
      "ESCALAT": 713,
      "_records": 714,
      "batch_records": 715,
      "escalation": 716,
      "ING_SMURFING": 717,
      "STRUCTURING_SMURFING": 718,
      "avoidance": 719,
      "subject_account": 720,
      "network_edges": 721,
      "ESCALATE_TO_FIU": 722,
      "DI": 723,
      "tive": 724,
      "barg": 725,
      "oed": 726,
      "destin": 727,
      "restrict": 728,
      "high": 729,
      "compli": 730,
      "TIC": 731,
      "jurisdictions": 732,
      "ance_policy": 733,
      "REEN": 734,
      "SCREEN": 735,
      "audit_account": 736,
      "SANCTIONS": 737,
      "embarg": 738,
      "eze": 739,
      "Freeze": 740,
      "destined": 741,
      "restricted": 742,
      "compliance_policy": 743,
      "embargoed": 744,
      "ecu": 745,
      "execu": 746,
      "ate": 747,
      "da": 748,
      "\"}}<|": 749,
      "ing": 750,
      "na": 751,
      "dv": 752,
      "dvance": 753,
      "fro": 754,
      "ated": 755,
      "from": 756,
      "Count": 757,
      "Cate": 758,
      "gory": 759,
      "erpar": 760,
      "entity": 761,
      "porate": 762,
      "corporate": 763,
      "audited": 764,
      "Counterpar": 765,
      "Category": 766,
      "Counterparty": 767,
      "der": 768,
      "no": 769,
      "Be": 770,
      "Pu": 771,
      "bai": 772,
      "ss": 773,
      "Pune": 774,
      "stic": 775,
      "mestic": 776,
      "Mum": 777,
      "Mumbai": 778,
      "ngalu": 779,
      "Bengalu": 780,
      "Bengaluru": 781,
      "enna": 782,
      "CU": 783,
      "Chenna": 784,
      "Chennai": 785,
      "\"],": 786,
      "yde": 787,
      "Hyde": 788,
      "lin": 789,
      "rabad": 790,
      "Hyderabad": 791,
      "H_": 792,
      "Del": 793,
      "Delhi": 794,
      "transfers": 795,
      "ring": 796,
      "valu": 797,
      "tranch": 798,
      "with": 799,
      "rep": 800,
      "hip": 801,
      "link": 802,
      "ul": 803,
      "ONE": 804,
      "ta": 805,
      "RI": 806,
      ".\"}<|": 807,
      "regul": 808,
      "regulatory": 809,
      "PL": 810,
      "Lt": 811,
      "Ltd": 812,
      "Ind": 813,
      "\"}]}<|": 814,
      "lar": 815,
      "ter": 816,
      "ustri": 817,
      "Industri": 818,
      "Industries": 819,
      "He": 820,
      "min": 821,
      "ata": 822,
      "utes": 823,
      "Sing": 824,
      "ates": 825,
      "eti": 826,
      "dec": 827,
      "ice": 828,
      "Ah": 829,
      "nti": 830,
      "avy": 831,
      "Ahme": 832,
      "tice": 833,
      "notice": 834,
      "AB": 835,
      "AIN": 836,
      "ATION": 837,
      "Advance": 838,
      "DO": 839,
      "EX": 840,
      "KE": 841,
      "LE_": 842,
      "MEN": 843,
      "SPI": 844,
      "TATION": 845,
      "UE": 846,
      "VAL": 847,
      "VER": 848,
      "Y_": 849,
      "_tx": 850,
      "_amount": 851,
      "_ju": 852,
      "_VAL": 853,
      "oice": 854,
      "voice": 855,
      "ed_ju": 856,
      "deviates": 857,
      "prior": 858,
      "cations": 859,
      "cument": 860,
      "fications": 861,
      "olated": 862,
      "median_tx": 863,
      "stifications": 864,
      "invoice": 865,
      "isolated": 866,
      "IFY_": 867,
      "wire": 868,
      "IUM": 869,
      "HIGH_VAL": 870,
      "document": 871,
      "MEDIUM": 872,
      "execution": 873,
      "CUMEN": 874,
      "tax": 875,
      "PLAIN": 876,
      "laration": 877,
      "Heavy": 878,
      "Single": 879,
      "declaration": 880,
      "ABLE_": 881,
      "DOCUMEN": 882,
      "EXPLAIN": 883,
      "SPIKE": 884,
      "VERIFY_": 885,
      "ed_justifications": 886,
      "median_tx_amount": 887,
      "HIGH_VALUE": 888,
      "documented_justifications": 889,
      "ABLE_HIGH_VALUE": 890,
      "DOCUMENTATION": 891,
      "EXPLAINABLE_HIGH_VALUE": 892,
      "VERIFY_DOCUMENTATION": 893,
      "Kol": 894,
      "kata": 895,
      "Kolkata": 896,
      "dabad": 897,
      "Ahmedabad": 898,
      "ori": 899,
      "MER": 900,
      "POS_": 901,
      "ANT": 902,
      "CHANT": 903,
      "MERCHANT": 904,
      "POS_MERCHANT": 905,
      "ke": 906,
      "AS": 907,
      "CAS": 908,
      "IT": 909,
      "SIT": 910,
      "DEPO": 911,
      "H_DEPO": 912,
      "CASH_DEPO": 913,
      "CASH_DEPOSIT": 914,
      "ders": 915,
      "domestic": 916,
      "Di": 917,
      "ho": 918,
      "ath": 919,
      "ver": 920,
      "Sm": 921,
      "For": 922,
      "war": 923,
      "key": 924,
      "lap": 925,
      "over": 926,
      "son": 927,
      "FAL": 928,
      "HONE": 929,
      "IS": 930,
      "Lex": 931,
      "N_": 932,
      "NIG": 933,
      "PHONE": 934,
      "SE_": 935,
      "TCH": 936,
      "_MA": 937,
      "ical": 938,
      "dete": 939,
      "BENIG": 940,
      "INDI": 941,
      "cted": 942,
      "ALAR": 943,
      "S_FAL": 944,
      "SMIS": 945,
      "word": 946,
      "DISMIS": 947,
      "TIC_MA": 948,
      "keyword": 949,
      "overlap": 950,
      "Lexical": 951,
      "N_PHONE": 952,
      "SE_ALAR": 953,
      "detected": 954,
      "BENIGN_PHONE": 955,
      "INDIA": 956,
      "S_FALSE_ALAR": 957,
      "DISMISS_FALSE_ALAR": 958,
      "TIC_MATCH": 959,
      "BENIGN_PHONETIC_MATCH": 960,
      "DISMISS_FALSE_ALARM": 961,
      "ship": 962,
      "BRE": 963,
      "BLO": 964,
      "CK": 965,
      "CRI": 966,
      "EL": 967,
      "IAT": 968,
      "_IM": 969,
      "rect": 970,
      "transship": 971,
      "ACH": 972,
      "S_BRE": 973,
      "SANCTIONS_BRE": 974,
      "transfer": 975,
      "MEDIAT": 976,
      "TICAL": 977,
      "linked": 978,
      "Direct": 979,
      "Forwar": 980,
      "BLOCK": 981,
      "CRITICAL": 982,
      "ELY": 983,
      "_IMMEDIAT": 984,
      "transshipment": 985,
      "SANCTIONS_BREACH": 986,
      "Forwarders": 987,
      "BLOCK_IMMEDIAT": 988,
      "BLOCK_IMMEDIATELY": 989,
      "va": 990,
      "Cu": 991,
      "eva": 992,
      "ad": 993,
      "mon": 994,
      "ren": 995,
      "cha": 996,
      "'.\"],": 997,
      "bo": 998,
      "cce": 999,
      "hin": 1000,
      "ive": 1001,
      "ula": 1002,
      "ff": 1003,
      "ph": 1004,
      "out": 1005,
      "ross": 1006,
      "wit": 1007,
      "pat": 1008,
      "Det": 1009,
      "neath": 1010,
      "succe": 1011,
      "vering": 1012,
      "beneath": 1013,
      "ected": 1014,
      "ssive": 1015,
      "hovering": 1016,
      "bound": 1017,
      "outbound": 1018,
      "within": 1019,
      "Detected": 1020,
      "successive": 1021,
      "flag": 1022,
      "ged": 1023,
      "pid": 1024,
      "ted": 1025,
      "rapid": 1026,
      "fing": 1027,
      "urfing": 1028,
      "executed": 1029,
      "tern": 1030,
      "minutes": 1031,
      "Smurfing": 1032,
      "pattern": 1033,
      "flagged": 1034,
      "rapidly": 1035,
      "Cum": 1036,
      "ito": 1037,
      "rren": 1038,
      "spli": 1039,
      "across": 1040,
      "curren": 1041,
      "limits": 1042,
      "value": 1043,
      "tranches": 1044,
      "evade": 1045,
      "monito": 1046,
      "ulative": 1047,
      "Cumulative": 1048,
      "split": 1049,
      "currency": 1050,
      "monitoring": 1051,
      "ide": 1052,
      "uring": 1053,
      "stru": 1054,
      "cturing": 1055,
      "fied": 1056,
      "Deliberate": 1057,
      "values": 1058,
      "tranche": 1059,
      "reporting": 1060,
      "repeti": 1061,
      "ntified": 1062,
      "identified": 1063,
      "structuring": 1064,
      "repetitive": 1065,
      "ee": 1066,
      "pur": 1067,
      "ay": 1068,
      "bb": 1069,
      "sa": 1070,
      "fe": 1071,
      "ow": 1072,
      "pe": 1073,
      "ag": 1074,
      "Pri": 1075,
      "gin": 1076,
      "fd": 1077,
      "ab": 1078,
      "rou": 1079,
      "tal": 1080,
      "tok": 1081,
      "Tran": 1082,
      "},": 1083,
      "tis": 1084,
      "cc": 1085,
      "by": 1086,
      "ure": 1087,
      "advance": 1088,
      "rci": 1089,
      "ndit": 1090,
      "capi": 1091,
      "expe": 1092,
      "commerci": 1093,
      "Customer": 1094,
      "chase": 1095,
      "purchase": 1096,
      "nditure": 1097,
      "capital": 1098,
      "expenditure": 1099,
      "commercial": 1100,
      "Do": 1101,
      "IP": 1102,
      "saction": 1103,
      "origin": 1104,
      "token": 1105,
      "Transaction": 1106,
      "originated": 1107,
      "older": 1108,
      "AM": 1109,
      "holder": 1110,
      "ption": 1111,
      "ception": 1112,
      "exception": 1113,
      "fies": 1114,
      "satis": 1115,
      "Prior": 1116,
      "AML": 1117,
      "satisfies": 1118,
      "registered": 1119,
      "bd": 1120,
      "fa": 1121,
      "as": 1122,
      "[]}<|": 1123,
      "el": 1124,
      "ole": 1125,
      "cd": 1126,
      "vid": 1127,
      "si": 1128,
      "fc": 1129,
      "ind": 1130,
      "fb": 1131,
      "san": 1132,
      "med": 1133,
      "ha": 1134,
      "dd": 1135,
      "Mar": 1136,
      "res": 1137,
      "aa": 1138,
      "age": 1139,
      "cle": 1140,
      "ollo": 1141,
      "rmed": 1142,
      "sole": 1143,
      "zed": 1144,
      "aring": 1145,
      "throu": 1146,
      "transactional": 1147,
      "firmed": 1148,
      "routes": 1149,
      "authori": 1150,
      "confirmed": 1151,
      "node": 1152,
      "Domestic": 1153,
      "clearing": 1154,
      "solely": 1155,
      "through": 1156,
      "authorized": 1157,
      "cb": 1158,
      "wing": 1159,
      "ID": 1160,
      "Watch": 1161,
      "fal": 1162,
      "follo": 1163,
      "match": 1164,
      "nation": 1165,
      "deter": 1166,
      "oneti": 1167,
      "list": 1168,
      "posi": 1169,
      "verification": 1170,
      "mined": 1171,
      "phoneti": 1172,
      "Watchlist": 1173,
      "false": 1174,
      "following": 1175,
      "national": 1176,
      "determined": 1177,
      "positive": 1178,
      "phonetic": 1179,
      "own": 1180,
      "tiz": 1181,
      "ero": 1182,
      "ya": 1183,
      "Enti": 1184,
      "ivid": 1185,
      "ution": 1186,
      "ual": 1187,
      "zero": 1188,
      "citiz": 1189,
      "olution": 1190,
      "ctioned": 1191,
      "verifies": 1192,
      "ership": 1193,
      "linkage": 1194,
      "individ": 1195,
      "sanctioned": 1196,
      "resolution": 1197,
      "ownership": 1198,
      "Entity": 1199,
      "citizen": 1200,
      "individual": 1201,
      "ea": 1202,
      "eb": 1203,
      "ang": 1204,
      "Jo": 1205,
      "cf": 1206,
      "db": 1207,
      "Mr": 1208,
      "Dr": 1209,
      "KO": 1210,
      "TH_": 1211,
      "REA": 1212,
      "NORTH_": 1213,
      "KOREA": 1214,
      "NORTH_KOREA": 1215,
      "ka": 1216,
      "ae": 1217,
      "\"]}<|": 1218,
      "ANMA": 1219,
      "MY": 1220,
      "R_": 1221,
      "TIONE": 1222,
      "SANCTIONE": 1223,
      "ANMAR_": 1224,
      "MYANMAR_": 1225,
      "SANCTIONED": 1226,
      "MYANMAR_SANCTIONED": 1227,
      ").\"],": 1228,
      "IR": 1229,
      "IRAN": 1230,
      "bc": 1231,
      "BA": 1232,
      "CUBA": 1233,
      "ak": 1234,
      "ef": 1235,
      "af": 1236,
      "SY": 1237,
      "RIA": 1238,
      "SYRIA": 1239,
      "bf": 1240,
      "df": 1241,
      "Wil": 1242,
      "dc": 1243,
      "ec": 1244,
      "Da": 1245,
      "Ki": 1246,
      "ani": 1247,
      "]},": 1248,
      "}}<|": 1249,
      "Sh": 1250,
      "ith": 1251,
      "ry": 1252,
      "ma": 1253,
      "ana": 1254,
      "Py": 1255,
      "Bur": 1256,
      "oo": 1257,
      "Cuba": 1258,
      "Bro": 1259,
      "Tho": 1260,
      "Thom": 1261,
      "hn": 1262,
      "Smith": 1263,
      "man": 1264,
      "Iran": 1265,
      "ub": 1266,
      ").\",": 1267,
      "Ja": 1268,
      "Rob": 1269,
      "Har": 1270,
      "Jon": 1271,
      "Willi": 1272,
      "Mi": 1273,
      "Par": 1274,
      "William": 1275,
      "ia": 1276,
      "ara": 1277,
      "Su": 1278,
      "Go": 1279,
      "yan": 1280,
      "ley": 1281,
      "ni": 1282,
      "ill": 1283,
      "John": 1284,
      "Du": 1285,
      "Ro": 1286,
      "Ra": 1287,
      "Sy": 1288,
      "ongy": 1289,
      "ert": 1290,
      "Pyongy": 1291,
      "Pyongyang": 1292,
      "Ste": 1293,
      "ine": 1294,
      "Jones": 1295,
      "DP": 1296,
      "Hav": 1297,
      "RK": 1298,
      "DPRK": 1299,
      "Havana": 1300,
      "Thomas": 1301,
      "'.\"]}<|": 1302,
      "ant": 1303,
      "tt": 1304,
      "ew": 1305,
      "Al": 1306,
      "Syri": 1307,
      "ash": 1308,
      "Bar": 1309,
      "kash": 1310,
      "Sam": 1311,
      "Ni": 1312,
      "Ba": 1313,
      "Kim": 1314,
      "wn": 1315,
      "all": 1316,
      "Re": 1317,
      "ton": 1318,
      "Davi": 1319,
      "Marine": 1320,
      "Williams": 1321,
      "Robert": 1322,
      "Lo": 1323,
      "Dam": 1324,
      "Car": 1325,
      "]}}<|": 1326,
      "kin": 1327,
      "Mo": 1328,
      "van": 1329,
      "Yash": 1330,
      "Mrs": 1331,
      "Pra": 1332,
      "ala": 1333,
      "ker": 1334,
      "Ri": 1335,
      "Brown": 1336,
      "Te": 1337,
      "Bh": 1338,
      "Wal": 1339,
      "Ca": 1340,
      "Mis": 1341,
      "ons": 1342,
      "Ma": 1343,
      "ell": 1344,
      "Tra": 1345,
      "Burma": 1346,
      "Yang": 1347,
      "Leva": 1348,
      "Levant": 1349,
      "Ms": 1350,
      "An": 1351,
      "don": 1352,
      "ack": 1353,
      "Yangon": 1354,
      "har": 1355,
      "cus": 1356,
      "Myan": 1357,
      "Myanmar": 1358,
      "Mor": 1359,
      "Pers": 1360,
      "Persia": 1361,
      "Miss": 1362,
      "Syria": 1363,
      "dw": 1364,
      "hran": 1365,
      "Tehran": 1366,
      "im": 1367,
      "In": 1368,
      "Inc": 1369,
      "Sur": 1370,
      "lor": 1371,
      "aylor": 1372,
      "Johnson": 1373,
      "May": 1374,
      "han": 1375,
      "Sons": 1376,
      "LC": 1377,
      "LLC": 1378,
      "Taylor": 1379,
      "PLC": 1380,
      "Am": 1381,
      "Gar": 1382,
      "Grou": 1383,
      "esh": 1384,
      "Group": 1385,
      "Surya": 1386,
      "ascus": 1387,
      "Marti": 1388,
      "Irani": 1389,
      "Damascus": 1390,
      "Me": 1391,
      "Lon": 1392,
      "kh": 1393,
      "Jai": 1394,
      "chard": 1395,
      "Bra": 1396,
      "Vi": 1397,
      "Kiran": 1398,
      "Ju": 1399,
      "shi": 1400,
      "Shar": 1401,
      "ner": 1402,
      "Jame": 1403,
      "James": 1404,
      "Ge": 1405,
      "Ad": 1406,
      "Co": 1407,
      "Char": 1408,
      "athan": 1409,
      "Richard": 1410,
      "Gra": 1411,
      "Mit": 1412,
      "want": 1413,
      "Gore": 1414,
      "Yashwant": 1415,
      "Pate": 1416,
      "Patel": 1417,
      "aniel": 1418,
      "Micha": 1419,
      "Jen": 1420,
      "Nar": 1421,
      "sha": 1422,
      "Michael": 1423,
      "Harris": 1424,
      "Sa": 1425,
      "Parkash": 1426,
      "kins": 1427,
      "Bri": 1428,
      "Mayur": 1429,
      "London": 1430,
      "Jaipur": 1431,
      "Ka": 1432,
      "ght": 1433,
      ").\"]}<|": 1434,
      "eth": 1435,
      "And": 1436,
      "Clar": 1437,
      "Hu": 1438,
      "Mill": 1439,
      "Ram": 1440,
      "gu": 1441,
      "pson": 1442,
      "len": 1443,
      "Jack": 1444,
      "Ben": 1445,
      "nder": 1446,
      "thers": 1447,
      "Burman": 1448,
      "Brothers": 1449,
      "ham": 1450,
      "ja": 1451,
      "Pat": 1452,
      "Kory": 1453,
      "Traders": 1454,
      "Koryo": 1455,
      "Wilson": 1456,
      "Pyo": 1457,
      "Whi": 1458,
      "Sha": 1459,
      "Ke": 1460,
      "Daniel": 1461,
      "Kar": 1462,
      "Mem": 1463,
      "Dubai": 1464,
      "Memon": 1465,
      "Le": 1466,
      "Edw": 1467,
      "Mer": 1468,
      "Lee": 1469,
      "gi": 1470,
      "Cha": 1471,
      "Ak": 1472,
      "gan": 1473,
      "ou": 1474,
      "ir": 1475,
      "Coo": 1476,
      "Hol": 1477,
      "kar": 1478,
      "Steph": 1479,
      "yn": 1480,
      "ann": 1481,
      "Martin": 1482,
      "Ru": 1483,
      "lie": 1484,
      "Andre": 1485,
      "chant": 1486,
      "Merchant": 1487,
      "raj": 1488,
      "pher": 1489,
      "ood": 1490,
      "White": 1491,
      "ber": 1492,
      "uber": 1493,
      "Wri": 1494,
      "ach": 1495,
      "Alex": 1496,
      "Akub": 1497,
      "ane": 1498,
      "Mat": 1499,
      "Ent": 1500,
      "Kuber": 1501,
      "Wa": 1502,
      "pris": 1503,
      "erpris": 1504,
      "Robin": 1505,
      "Enterpris": 1506,
      "Enterprises": 1507,
      "ts": 1508,
      "David": 1509,
      "El": 1510,
      "ayan": 1511,
      "cia": 1512,
      "Kel": 1513,
      "ssa": 1514,
      "Gre": 1515,
      "Wat": 1516,
      "Kris": 1517,
      "Edward": 1518,
      "Sco": 1519,
      "Scott": 1520,
      "dh": 1521,
      "ini": 1522,
      "eff": 1523,
      "anda": 1524,
      "thew": 1525,
      "Matthew": 1526,
      "Mur": 1527,
      "Jackson": 1528,
      "We": 1529,
      "Ar": 1530,
      "Yak": 1531,
      "Cuban": 1532,
      "Cafe": 1533,
      "Yakub": 1534,
      "Prakash": 1535,
      "ler": 1536,
      "Miller": 1537,
      "ukh": 1538,
      "rey": 1539,
      "Bo": 1540,
      "Lu": 1541,
      "Chri": 1542,
      "erry": 1543,
      "Desh": 1544,
      "Evan": 1545,
      "ge": 1546,
      "Bal": 1547,
      "San": 1548,
      "Lew": 1549,
      "Lewis": 1550,
      "Narayan": 1551,
      "rana": 1552,
      "Davies": 1553,
      "ony": 1554,
      "Davis": 1555,
      "lip": 1556,
      "ven": 1557,
      "Thompson": 1558,
      "ey": 1559,
      "Bak": 1560,
      "Elli": 1561,
      "Evans": 1562,
      "stopher": 1563,
      "Rao": 1564,
      "Pal": 1565,
      "thy": 1566,
      "Sara": 1567,
      "Steven": 1568,
      "Roberts": 1569,
      "Christopher": 1570,
      "Sar": 1571,
      "How": 1572,
      "Jose": 1573,
      "Sami": 1574,
      "Ph": 1575,
      "op": 1576,
      "Hay": 1577,
      "rick": 1578,
      "Suri": 1579,
      "Adam": 1580,
      "Na": 1581,
      "vin": 1582,
      "aw": 1583,
      "wa": 1584,
      "Wright": 1585,
      "ish": 1586,
      "wal": 1587,
      "Pau": 1588,
      "mukh": 1589,
      "Deshmukh": 1590,
      "Sharma": 1591,
      "Narayanan": 1592,
      "per": 1593,
      "Don": 1594,
      "Kath": 1595,
      "eri": 1596,
      "por": 1597,
      "Kelly": 1598,
      "Va": 1599,
      "Walker": 1600,
      "Aar": 1601,
      "cca": 1602,
      "ster": 1603,
      "Mirana": 1604,
      "Jan": 1605,
      "ie": 1606,
      "ald": 1607,
      "Andrew": 1608,
      "Nich": 1609,
      "Fran": 1610,
      "Green": 1611,
      "Moo": 1612,
      "za": 1613,
      "Moore": 1614,
      "ande": 1615,
      "Ex": 1616,
      "Robinson": 1617,
      "ports": 1618,
      "Exports": 1619,
      "att": 1620,
      "Nichol": 1621,
      "Ant": 1622,
      "Eri": 1623,
      "Gu": 1624,
      "Chand": 1625,
      "Geor": 1626,
      "fer": 1627,
      "nifer": 1628,
      "Jennifer": 1629,
      "Ali": 1630,
      "hal": 1631,
      "Syriac": 1632,
      "Gi": 1633,
      "illip": 1634,
      "Samiha": 1635,
      "Phillip": 1636,
      "ig": 1637,
      "Chau": 1638,
      "Pet": 1639,
      "ander": 1640,
      "stics": 1641,
      "Logi": 1642,
      "Suriya": 1643,
      "Logistics": 1644,
      "Lau": 1645,
      "Mc": 1646,
      "Ryan": 1647,
      "Hen": 1648,
      "Chris": 1649,
      "Edwards": 1650,
      "Tur": 1651,
      "War": 1652,
      "Morris": 1653,
      "Hall": 1654,
      "ern": 1655,
      "Suraj": 1656,
      "Christi": 1657,
      "Cart": 1658,
      "Con": 1659,
      "Den": 1660,
      "Brad": 1661,
      "iley": 1662,
      "nda": 1663,
      "Josh": 1664,
      "Col": 1665,
      "Jes": 1666,
      "ita": 1667,
      "Sim": 1668,
      "Baker": 1669,
      "Ash": 1670,
      "Hugh": 1671,
      "Han": 1672,
      "King": 1673,
      "chell": 1674,
      "anie": 1675,
      "Mitchell": 1676,
      "Ander": 1677,
      "Allen": 1678,
      "ace": 1679,
      "Dar": 1680,
      "Fo": 1681,
      "Raj": 1682,
      "Clark": 1683,
      "Stephen": 1684,
      "Anderson": 1685,
      "Hill": 1686,
      "You": 1687,
      "Young": 1688,
      "gar": 1689,
      "nett": 1690,
      "Eli": 1691,
      "Wood": 1692,
      "othy": 1693,
      "Oli": 1694,
      "Ken": 1695,
      "anne": 1696,
      "adh": 1697,
      "Joseph": 1698,
      "ela": 1699,
      "ks": 1700,
      "Tri": 1701,
      "Ow": 1702,
      "aksh": 1703,
      "Owen": 1704,
      "Rog": 1705,
      "Jeff": 1706,
      "ayne": 1707,
      "Morgan": 1708,
      "Turner": 1709,
      "Ek": 1710,
      "Ward": 1711,
      "nez": 1712,
      "Tan": 1713,
      "bert": 1714,
      "hony": 1715,
      "lia": 1716,
      "Anthony": 1717,
      "Ab": 1718,
      "Gau": 1719,
      "Mich": 1720,
      "Bu": 1721,
      "Var": 1722,
      "ug": 1723,
      "wart": 1724,
      "cob": 1725,
      "sica": 1726,
      "Jessica": 1727,
      "Si": 1728,
      "araj": 1729,
      "achar": 1730,
      "Hughes": 1731,
      "Ang": 1732,
      "Greg": 1733,
      "hak": 1734,
      "Meli": 1735,
      "om": 1736,
      "Nor": 1737,
      "Cra": 1738,
      "Jason": 1739,
      "Gri": 1740,
      "Far": 1741,
      "nn": 1742,
      "Marsh": 1743,
      "Carter": 1744,
      "Bre": 1745,
      "Law": 1746,
      "dhar": 1747,
      "Phillips": 1748,
      "Ko": 1749,
      "Sand": 1750,
      "sse": 1751,
      "edd": 1752,
      "Day": 1753,
      "Ga": 1754,
      "Hunt": 1755,
      "ua": 1756,
      "Harrison": 1757,
      "Joshua": 1758,
      "erine": 1759,
      "Jacob": 1760,
      "Gregory": 1761,
      "Lind": 1762,
      "Ku": 1763,
      "ctor": 1764,
      "Heath": 1765,
      "Brian": 1766,
      "Se": 1767,
      "Nico": 1768,
      "Kimber": 1769,
      "Cooper": 1770,
      "Russe": 1771,
      "Russell": 1772,
      "ffi": 1773,
      "Stewart": 1774,
      "Charles": 1775,
      "Griffi": 1776,
      "qu": 1777,
      "lins": 1778,
      "andez": 1779,
      "ernandez": 1780,
      "Tim": 1781,
      "Mark": 1782,
      "Ray": 1783,
      "Alexander": 1784,
      "Sarah": 1785,
      "isa": 1786,
      "Adams": 1787,
      "Brand": 1788,
      "Ham": 1789,
      "wan": 1790,
      "amin": 1791,
      "Pa": 1792,
      "ney": 1793,
      "kinson": 1794,
      "George": 1795,
      "Melissa": 1796,
      "Timothy": 1797,
      "Kala": 1798,
      "Ellio": 1799,
      "zab": 1800,
      "Elizab": 1801,
      "Elizabeth": 1802,
      "Cole": 1803,
      "Lisa": 1804,
      "sey": 1805,
      "Jonathan": 1806,
      "Fra": 1807,
      "ord": 1808,
      "ina": 1809,
      "Chak": 1810,
      "Parker": 1811,
      "Pow": 1812,
      "Rod": 1813,
      "ram": 1814,
      "But": 1815,
      "Clarke": 1816,
      "Kevin": 1817,
      "Ashley": 1818,
      "my": 1819,
      "Amanda": 1820,
      "Garcia": 1821,
      "Krish": 1822,
      "Howard": 1823,
      "elle": 1824,
      "Mary": 1825,
      "Bennett": 1826,
      "Li": 1827,
      "MD": 1828,
      "Up": 1829,
      "yle": 1830,
      "nes": 1831,
      "Collins": 1832,
      "amp": 1833,
      "Angela": 1834,
      "Gon": 1835,
      "let": 1836,
      "Yo": 1837,
      "hu": 1838,
      "hnan": 1839,
      "Jeffrey": 1840,
      "Lyn": 1841,
      "Bradley": 1842,
      "Ag": 1843,
      "Hem": 1844,
      "Cook": 1845,
      "Watson": 1846,
      "Bailey": 1847,
      "rigu": 1848,
      "Chad": 1849,
      "Rodrigu": 1850,
      "Rodriguez": 1851,
      "ika": 1852,
      "Richardson": 1853,
      "Michelle": 1854,
      "Em": 1855,
      "ral": 1856,
      "Price": 1857,
      "Kau": 1858,
      "Pe": 1859,
      "bal": 1860,
      "Henry": 1861,
      "Oliver": 1862,
      "yl": 1863,
      "She": 1864,
      "Martinez": 1865,
      "phy": 1866,
      "Stephanie": 1867,
      "Murphy": 1868,
      "Ho": 1869,
      "Hernandez": 1870,
      "Jag": 1871,
      "Jord": 1872,
      "ead": 1873,
      "ong": 1874,
      "Shaw": 1875,
      "Nicholas": 1876,
      "Jordan": 1877,
      "Ly": 1878,
      "Mal": 1879,
      "Graham": 1880,
      "Broo": 1881,
      "Mann": 1882,
      "Lop": 1883,
      "Eric": 1884,
      "Gil": 1885,
      "ire": 1886,
      "faa": 1887,
      "Mu": 1888,
      "ston": 1889,
      "Om": 1890,
      "Heather": 1891,
      "So": 1892,
      "jas": 1893,
      "Sri": 1894,
      "tika": 1895,
      "Amy": 1896,
      "Leon": 1897,
      "Eka": 1898,
      "bda": 1899,
      "ush": 1900,
      "Carr": 1901,
      "ise": 1902,
      "Ross": 1903,
      "arth": 1904,
      "Rose": 1905,
      "Ban": 1906,
      "dson": 1907,
      "Rebe": 1908,
      "Chakra": 1909,
      "Au": 1910,
      "oni": 1911,
      "asm": 1912,
      "Pear": 1913,
      "aba": 1914,
      "illa": 1915,
      "aman": 1916,
      "Kimberly": 1917,
      "Po": 1918,
      "Dean": 1919,
      "Singh": 1920,
      "mond": 1921,
      "Foster": 1922,
      "Th": 1923,
      "fca": 1924,
      "las": 1925,
      "Mason": 1926,
      "Jere": 1927,
      "Ne": 1928,
      "cher": 1929,
      "Cox": 1930,
      "Patrick": 1931,
      "Rogers": 1932,
      "Camp": 1933,
      "Nata": 1934,
      "pta": 1935,
      "ded": 1936,
      "veer": 1937,
      "bell": 1938,
      "Moham": 1939,
      "Campbell": 1940,
      "Fi": 1941,
      "dce": 1942,
      "dbe": 1943,
      "Bell": 1944,
      "cdd": 1945,
      "Elliott": 1946,
      "bdb": 1947,
      "Karen": 1948,
      "Nicole": 1949,
      "Ron": 1950,
      "yal": 1951,
      "Doug": 1952,
      "Kir": 1953,
      "Frank": 1954,
      "Peter": 1955,
      "Laura": 1956,
      "Douglas": 1957,
      "Sch": 1958,
      "ava": 1959,
      "aya": 1960,
      "ccf": 1961,
      "ryan": 1962,
      "bbe": 1963,
      "rence": 1964,
      "ford": 1965,
      "Powell": 1966,
      "Rebecca": 1967,
      "rah": 1968,
      "Lawrence": 1969,
      "sen": 1970,
      "Chou": 1971,
      "bbc": 1972,
      "Nag": 1973,
      "eda": 1974,
      "feb": 1975,
      "Rach": 1976,
      "pal": 1977,
      "yd": 1978,
      "annon": 1979,
      "Brandon": 1980,
      "cac": 1981,
      "eac": 1982,
      "Walla": 1983,
      "Ellis": 1984,
      "fba": 1985,
      "Dix": 1986,
      "ffc": 1987,
      "Bhat": 1988,
      "Gray": 1989,
      "Tere": 1990,
      "Carol": 1991,
      "Marshall": 1992,
      "Mad": 1993,
      "rya": 1994,
      "abf": 1995,
      "Ha": 1996,
      "dda": 1997,
      "igh": 1998,
      "jamin": 1999,
      "ced": 2000,
      "caa": 2001,
      "bdf": 2002,
      "cdf": 2003,
      "Benjamin": 2004,
      "Nel": 2005,
      "abe": 2006,
      "fac": 2007,
      "uel": 2008,
      "ncent": 2009,
      "lez": 2010,
      "fec": 2011,
      "Vincent": 2012,
      "Webb": 2013,
      "Nelson": 2014,
      "At": 2015,
      "Khan": 2016,
      "Shi": 2017,
      "cis": 2018,
      "fdb": 2019,
      "Francis": 2020,
      "yer": 2021,
      "dee": 2022,
      "rishnan": 2023,
      "Craig": 2024,
      "New": 2025,
      "cda": 2026,
      "anya": 2027,
      "ashi": 2028,
      "Les": 2029,
      "Rand": 2030,
      "ada": 2031,
      "def": 2032,
      "ricia": 2033,
      "Patricia": 2034,
      "neth": 2035,
      "fdf": 2036,
      "haan": 2037,
      "Kenneth": 2038,
      "cbe": 2039,
      "ffa": 2040,
      "fae": 2041,
      "Justin": 2042,
      "Peters": 2043,
      "Lopez": 2044,
      "dba": 2045,
      "atta": 2046,
      "alla": 2047
    },
    "merges": [
      [
        "\"",
        ":"
      ],
      [
        "\"",
        ","
      ],
      [
        "t",
        "i"
      ],
      [
        "n",
        "t"
      ],
      [
        "a",
        "r"
      ],
      [
        "d",
        "e"
      ],
      [
        "r",
        "i"
      ],
      [
        "r",
        "e"
      ],
      [
        "c",
        "o"
      ],
      [
        "c",
        "e"
      ],
      [
        "o",
        "n"
      ],
      [
        "r",
        "a"
      ],
      [
        "m",
        "e"
      ],
      [
        "s",
        "t"
      ],
      [
        "ti",
        "on"
      ],
      [
        "v",
        "i"
      ],
      [
        "a",
        "c"
      ],
      [
        "u",
        "nt"
      ],
      [
        "{",
        "\""
      ],
      [
        "_",
        "e"
      ],
      [
        "n",
        "d"
      ],
      [
        "o",
        "r"
      ],
      [
        "<",
        "|"
      ],
      [
        "|",
        ">"
      ],
      [
        "e",
        "d"
      ],
      [
        "l",
        "i"
      ],
      [
        "\"",
        "}"
      ],
      [
        "v",
        "e"
      ],
      [
        "c",
        "a"
      ],
      [
        "c",
        "i"
      ],
      [
        "i",
        "d"
      ],
      [
        "e",
        "r"
      ],
      [
        "de",
        "vi"
      ],
      [
        "D",
        "E"
      ],
      [
        "t",
        "y"
      ],
      [
        "devi",
        "ce"
      ],
      [
        "_",
        "id"
      ],
      [
        "]",
        ","
      ],
      [
        "p",
        "i"
      ],
      [
        "i",
        "l"
      ],
      [
        "o",
        "unt"
      ],
      [
        "e",
        "t"
      ],
      [
        "n",
        "ce"
      ],
      [
        "a",
        "t"
      ],
      [
        "a",
        "m"
      ],
      [
        "DE",
        "V"
      ],
      [
        "co",
        "unt"
      ],
      [
        "n",
        "g"
      ],
      [
        "t",
        "x"
      ],
      [
        "am",
        "ount"
      ],
      [
        "e",
        "x"
      ],
      [
        "l",
        "o"
      ],
      [
        "N",
        "E"
      ],
      [
        "e",
        "nt"
      ],
      [
        "ac",
        "tion"
      ],
      [
        "T",
        "X"
      ],
      [
        "re",
        "ci"
      ],
      [
        "ra",
        "il"
      ],
      [
        "pi",
        "ent"
      ],
      [
        "tx",
        "_id"
      ],
      [
        "TX",
        "N"
      ],
      [
        "reci",
        "pient"
      ],
      [
        "[",
        "\""
      ],
      [
        "p",
        "o"
      ],
      [
        "ar",
        "g"
      ],
      [
        "ti",
        "me"
      ],
      [
        "h",
        "i"
      ],
      [
        ".",
        "\""
      ],
      [
        "n",
        "e"
      ],
      [
        "ri",
        "s"
      ],
      [
        "d",
        "i"
      ],
      [
        "ra",
        "n"
      ],
      [
        "p",
        "ri"
      ],
      [
        "b",
        "a"
      ],
      [
        "ar",
        "t"
      ],
      [
        "ex",
        "t"
      ],
      [
        "_",
        "st"
      ],
      [
        "t",
        "arg"
      ],
      [
        "nt",
        "ext"
      ],
      [
        "de",
        "nce"
      ],
      [
        "co",
        "ntext"
      ],
      [
        "vi",
        "dence"
      ],
      [
        "_e",
        "nd"
      ],
      [
        "_e",
        "vidence"
      ],
      [
        "|>",
        "{\""
      ],
      [
        "_st",
        "art"
      ],
      [
        "targ",
        "et"
      ],
      [
        "m",
        "ar"
      ],
      [
        "\"}",
        ","
      ],
      [
        "t",
        "ran"
      ],
      [
        "mar",
        "y"
      ],
      [
        "pri",
        "mary"
      ],
      [
        "NE",
        "F"
      ],
      [
        "st",
        "o"
      ],
      [
        "tran",
        "s"
      ],
      [
        "e",
        "s"
      ],
      [
        "a",
        "nd"
      ],
      [
        "ca",
        "tion"
      ],
      [
        ".\"",
        "],"
      ],
      [
        "M",
        "A"
      ],
      [
        "a",
        "n"
      ],
      [
        "ca",
        "l"
      ],
      [
        "ac",
        "count"
      ],
      [
        "s",
        "e"
      ],
      [
        "d",
        "_"
      ],
      [
        "primary",
        "_"
      ],
      [
        "B",
        "E"
      ],
      [
        "I",
        "N"
      ],
      [
        "s",
        "u"
      ],
      [
        "p",
        "p"
      ],
      [
        "E",
        "D"
      ],
      [
        "l",
        "e"
      ],
      [
        "A",
        "C"
      ],
      [
        "c",
        "t"
      ],
      [
        "BE",
        "NEF"
      ],
      [
        "li",
        "ne"
      ],
      [
        "c",
        "u"
      ],
      [
        "ba",
        "se"
      ],
      [
        "base",
        "line"
      ],
      [
        "t",
        "h"
      ],
      [
        "co",
        "m"
      ],
      [
        "trans",
        "action"
      ],
      [
        "a",
        "l"
      ],
      [
        "f",
        "i"
      ],
      [
        "AC",
        "C"
      ],
      [
        "ris",
        "k"
      ],
      [
        "T",
        "I"
      ],
      [
        "N",
        "MA"
      ],
      [
        "or",
        "y"
      ],
      [
        "P",
        "P"
      ],
      [
        "U",
        "NMA"
      ],
      [
        "PP",
        "ED"
      ],
      [
        "UNMA",
        "PPED"
      ],
      [
        "}",
        "<|"
      ],
      [
        "ti",
        "ng"
      ],
      [
        "or",
        "ting"
      ],
      [
        "e",
        "n"
      ],
      [
        "t",
        "e"
      ],
      [
        "com",
        "me"
      ],
      [
        "c",
        "h"
      ],
      [
        "o",
        "l"
      ],
      [
        "P",
        "O"
      ],
      [
        "g",
        "y"
      ],
      [
        "lo",
        "cation"
      ],
      [
        "n",
        "de"
      ],
      [
        "a",
        "u"
      ],
      [
        "ve",
        "l"
      ],
      [
        "_",
        "le"
      ],
      [
        "re",
        "comme"
      ],
      [
        "|>",
        "<|"
      ],
      [
        "er",
        "_evidence"
      ],
      [
        "ty",
        "po"
      ],
      [
        "count",
        "er_evidence"
      ],
      [
        "lo",
        "gy"
      ],
      [
        "context",
        "_end"
      ],
      [
        "context",
        "_start"
      ],
      [
        "target",
        "_end"
      ],
      [
        "target",
        "_start"
      ],
      [
        "d_",
        "action"
      ],
      [
        "primary_",
        "typo"
      ],
      [
        "su",
        "pp"
      ],
      [
        "risk",
        "_le"
      ],
      [
        "orting",
        "_evidence"
      ],
      [
        "nde",
        "d_action"
      ],
      [
        "recomme",
        "nded_action"
      ],
      [
        "primary_typo",
        "logy"
      ],
      [
        "supp",
        "orting_evidence"
      ],
      [
        "risk_le",
        "vel"
      ],
      [
        ".",
        "\","
      ],
      [
        "j",
        "u"
      ],
      [
        "t",
        "o"
      ],
      [
        "T",
        "O"
      ],
      [
        "me",
        "r"
      ],
      [
        "sto",
        "mer"
      ],
      [
        "f",
        "or"
      ],
      [
        "\"}",
        "<|"
      ],
      [
        "O",
        "N"
      ],
      [
        "ve",
        "ri"
      ],
      [
        "l",
        "a"
      ],
      [
        "c",
        "tion"
      ],
      [
        "ri",
        "cal"
      ],
      [
        "ci",
        "ty"
      ],
      [
        "hi",
        "sto"
      ],
      [
        "cu",
        "stomer"
      ],
      [
        "transaction",
        "s"
      ],
      [
        "histo",
        "rical"
      ],
      [
        "st",
        "ri"
      ],
      [
        "ris",
        "di"
      ],
      [
        "ju",
        "risdi"
      ],
      [
        "jurisdi",
        "ction"
      ],
      [
        "me",
        "di"
      ],
      [
        "medi",
        "an"
      ],
      [
        "veri",
        "fi"
      ],
      [
        "A",
        "L"
      ],
      [
        "]",
        "}<|"
      ],
      [
        "u",
        "t"
      ],
      [
        "re",
        "g"
      ],
      [
        "PO",
        "L"
      ],
      [
        "c",
        "y"
      ],
      [
        "at",
        "ch"
      ],
      [
        "a",
        "nce"
      ],
      [
        "er",
        "v"
      ],
      [
        "A",
        "U"
      ],
      [
        "_",
        "b"
      ],
      [
        "ac",
        "ti"
      ],
      [
        "IN",
        "R"
      ],
      [
        "stri",
        "ct"
      ],
      [
        "R",
        "E"
      ],
      [
        "P",
        "I"
      ],
      [
        "verifi",
        "ed"
      ],
      [
        "r",
        "u"
      ],
      [
        "en",
        "ti"
      ],
      [
        "er",
        "s"
      ],
      [
        "_",
        "po"
      ],
      [
        "li",
        "cy"
      ],
      [
        "_po",
        "licy"
      ],
      [
        "s",
        "h"
      ],
      [
        "i",
        "t"
      ],
      [
        "I",
        "M"
      ],
      [
        "s",
        "ti"
      ],
      [
        "A",
        "N"
      ],
      [
        "l",
        "y"
      ],
      [
        "[",
        "{\""
      ],
      [
        "TO",
        "_"
      ],
      [
        "L",
        "O"
      ],
      [
        "la",
        "g"
      ],
      [
        "b",
        "e"
      ],
      [
        "e",
        "re"
      ],
      [
        "i",
        "st"
      ],
      [
        "p",
        "ar"
      ],
      [
        "po",
        "ra"
      ],
      [
        "reg",
        "ist"
      ],
      [
        "regist",
        "ere"
      ],
      [
        "i",
        "n"
      ],
      [
        "E",
        "_"
      ],
      [
        "I",
        "G"
      ],
      [
        "TI",
        "ON"
      ],
      [
        "NEF",
        "T"
      ],
      [
        "ol",
        "d"
      ],
      [
        "P",
        "S"
      ],
      [
        "IM",
        "PS"
      ],
      [
        "re",
        "sh"
      ],
      [
        "U",
        "PI"
      ],
      [
        "th",
        "resh"
      ],
      [
        "thresh",
        "old"
      ],
      [
        "r",
        "o"
      ],
      [
        "ac",
        "hi"
      ],
      [
        "b",
        "re"
      ],
      [
        "F",
        "lag"
      ],
      [
        "_",
        "baseline"
      ],
      [
        "account",
        "_id"
      ],
      [
        "account",
        "_baseline"
      ],
      [
        "d_",
        "city"
      ],
      [
        "primary_",
        "device"
      ],
      [
        "registere",
        "d_city"
      ],
      [
        "achi",
        "ng"
      ],
      [
        "bre",
        "aching"
      ],
      [
        "R",
        "U"
      ],
      [
        "S",
        "T"
      ],
      [
        "U",
        "R"
      ],
      [
        "IN",
        "G"
      ],
      [
        "RU",
        "C"
      ],
      [
        "ST",
        "RUC"
      ],
      [
        "S",
        "C"
      ],
      [
        "_",
        "account"
      ],
      [
        "st",
        "at"
      ],
      [
        "ut",
        "ory"
      ],
      [
        "stat",
        "utory"
      ],
      [
        "au",
        "th"
      ],
      [
        "i",
        "s"
      ],
      [
        ".\"",
        "]}<|"
      ],
      [
        "A",
        "R"
      ],
      [
        "LO",
        "W"
      ],
      [
        "co",
        "r"
      ],
      [
        "au",
        "di"
      ],
      [
        "audi",
        "t"
      ],
      [
        "u",
        "nd"
      ],
      [
        "a",
        "tion"
      ],
      [
        "a",
        "v"
      ],
      [
        "li",
        "m"
      ],
      [
        "\"}",
        "],"
      ],
      [
        "lim",
        "it"
      ],
      [
        "o",
        "f"
      ],
      [
        "strict",
        "ly"
      ],
      [
        "enti",
        "cation"
      ],
      [
        "auth",
        "entication"
      ],
      [
        "S",
        "AN"
      ],
      [
        "SAN",
        "C"
      ],
      [
        "at",
        "ory"
      ],
      [
        "I",
        "F"
      ],
      [
        "co",
        "n"
      ],
      [
        "N",
        "O"
      ],
      [
        "NO",
        "R"
      ],
      [
        "ar",
        "d"
      ],
      [
        "w",
        "i"
      ],
      [
        "a",
        "pp"
      ],
      [
        "H",
        "IG"
      ],
      [
        "I",
        "U"
      ],
      [
        "ed",
        "_policy"
      ],
      [
        "li",
        "ed_policy"
      ],
      [
        "app",
        "lied_policy"
      ],
      [
        "HIG",
        "H"
      ],
      [
        "E",
        "N"
      ],
      [
        "_e",
        "ve"
      ],
      [
        "transaction",
        "_eve"
      ],
      [
        "transaction_eve",
        "nt"
      ],
      [
        "S",
        "_"
      ],
      [
        "l",
        "l"
      ],
      [
        "o",
        "b"
      ],
      [
        "al",
        "u"
      ],
      [
        "c",
        "k"
      ],
      [
        "S",
        "M"
      ],
      [
        "w",
        "or"
      ],
      [
        "A",
        "T"
      ],
      [
        "a",
        "me"
      ],
      [
        "f",
        "und"
      ],
      [
        "SANC",
        "TION"
      ],
      [
        "fund",
        "s"
      ],
      [
        "S",
        "t"
      ],
      [
        "l",
        "es"
      ],
      [
        "t",
        "ers"
      ],
      [
        "al",
        "s"
      ],
      [
        "ob",
        "s"
      ],
      [
        "A",
        "ll"
      ],
      [
        "i",
        "nt"
      ],
      [
        "C",
        "L"
      ],
      [
        "E",
        "AR"
      ],
      [
        "F",
        "AU"
      ],
      [
        "I",
        "TO"
      ],
      [
        "L",
        "T"
      ],
      [
        "L",
        "_"
      ],
      [
        "M",
        "ON"
      ],
      [
        "O",
        "U"
      ],
      [
        "R",
        "OU"
      ],
      [
        "_",
        "median"
      ],
      [
        "_",
        "ru"
      ],
      [
        "m",
        "pora"
      ],
      [
        "ra",
        "ck"
      ],
      [
        "vi",
        "ty"
      ],
      [
        "ve",
        "lo"
      ],
      [
        "ve",
        "_ru"
      ],
      [
        "DE",
        "FAU"
      ],
      [
        "ty",
        "pi"
      ],
      [
        "and",
        "ard"
      ],
      [
        "MA",
        "L_"
      ],
      [
        "cal",
        "_b"
      ],
      [
        "TI",
        "NE"
      ],
      [
        "te",
        "mpora"
      ],
      [
        "for",
        "m"
      ],
      [
        "historical",
        "_median"
      ],
      [
        "erv",
        "ed"
      ],
      [
        "erv",
        "als"
      ],
      [
        "AU",
        "TO_"
      ],
      [
        "_b",
        "atch"
      ],
      [
        "acti",
        "vity"
      ],
      [
        "acti",
        "ve_ru"
      ],
      [
        "par",
        "ame"
      ],
      [
        "con",
        "form"
      ],
      [
        "NOR",
        "MAL_"
      ],
      [
        "St",
        "andard"
      ],
      [
        "obs",
        "erved"
      ],
      [
        "int",
        "ervals"
      ],
      [
        "CL",
        "EAR"
      ],
      [
        "ITO",
        "R"
      ],
      [
        "MON",
        "ITOR"
      ],
      [
        "ROU",
        "TINE"
      ],
      [
        "rack",
        "et"
      ],
      [
        "velo",
        "city"
      ],
      [
        "DEFAU",
        "LT"
      ],
      [
        "typi",
        "cal_b"
      ],
      [
        "tempora",
        "l"
      ],
      [
        "AUTO_",
        "CLEAR"
      ],
      [
        "activity",
        "_batch"
      ],
      [
        "active_ru",
        "les"
      ],
      [
        "parame",
        "ters"
      ],
      [
        "NORMAL_",
        "ROUTINE"
      ],
      [
        "typical_b",
        "racket"
      ],
      [
        "ba",
        "d"
      ],
      [
        "g",
        "h"
      ],
      [
        "su",
        "b"
      ],
      [
        "e",
        "ct"
      ],
      [
        "p",
        "li"
      ],
      [
        "ra",
        "te"
      ],
      [
        "li",
        "be"
      ],
      [
        "ne",
        "ar"
      ],
      [
        "libe",
        "rate"
      ],
      [
        "trans",
        "f"
      ],
      [
        "D",
        "e"
      ],
      [
        "u",
        "m"
      ],
      [
        "f",
        "il"
      ],
      [
        "fil",
        "ed"
      ],
      [
        "[",
        "],"
      ],
      [
        "C",
        "h"
      ],
      [
        "E",
        "R"
      ],
      [
        "d",
        "o"
      ],
      [
        "G",
        "S"
      ],
      [
        "R",
        "T"
      ],
      [
        "RT",
        "GS"
      ],
      [
        "u",
        "r"
      ],
      [
        "me",
        "nt"
      ],
      [
        "M",
        "ED"
      ],
      [
        "e",
        "m"
      ],
      [
        "C",
        "H"
      ],
      [
        "S",
        "W"
      ],
      [
        "IF",
        "T"
      ],
      [
        "SW",
        "IFT"
      ],
      [
        "e",
        "z"
      ],
      [
        "n",
        "et"
      ],
      [
        "d",
        "s"
      ],
      [
        "sti",
        "n"
      ],
      [
        "M",
        "and"
      ],
      [
        "F",
        "re"
      ],
      [
        "d",
        "g"
      ],
      [
        "dg",
        "es"
      ],
      [
        "-",
        ">"
      ],
      [
        "E",
        "SC"
      ],
      [
        "F",
        "ING"
      ],
      [
        "F",
        "IU"
      ],
      [
        "T",
        "UR"
      ],
      [
        "_",
        "re"
      ],
      [
        "_",
        "limit"
      ],
      [
        "_",
        "SM"
      ],
      [
        "b",
        "atch"
      ],
      [
        "j",
        "ect"
      ],
      [
        "k",
        "_e"
      ],
      [
        "o",
        "id"
      ],
      [
        "de",
        "liberate"
      ],
      [
        "es",
        "cal"
      ],
      [
        "AL",
        "AT"
      ],
      [
        "RE",
        "G"
      ],
      [
        "TO_",
        "FIU"
      ],
      [
        "E_",
        "TO_FIU"
      ],
      [
        "UR",
        "FING"
      ],
      [
        "ING",
        "_SM"
      ],
      [
        "STRUC",
        "TUR"
      ],
      [
        "statutory",
        "_limit"
      ],
      [
        "cor",
        "ds"
      ],
      [
        "av",
        "oid"
      ],
      [
        "wor",
        "k_e"
      ],
      [
        "sub",
        "ject"
      ],
      [
        "net",
        "work_e"
      ],
      [
        "Mand",
        "atory"
      ],
      [
        "ESC",
        "ALAT"
      ],
      [
        "_re",
        "cords"
      ],
      [
        "batch",
        "_records"
      ],
      [
        "escal",
        "ation"
      ],
      [
        "ING_SM",
        "URFING"
      ],
      [
        "STRUCTUR",
        "ING_SMURFING"
      ],
      [
        "avoid",
        "ance"
      ],
      [
        "subject",
        "_account"
      ],
      [
        "network_e",
        "dges"
      ],
      [
        "ESCALAT",
        "E_TO_FIU"
      ],
      [
        "D",
        "I"
      ],
      [
        "ti",
        "ve"
      ],
      [
        "b",
        "arg"
      ],
      [
        "o",
        "ed"
      ],
      [
        "de",
        "stin"
      ],
      [
        "re",
        "strict"
      ],
      [
        "hi",
        "gh"
      ],
      [
        "com",
        "pli"
      ],
      [
        "TI",
        "C"
      ],
      [
        "jurisdiction",
        "s"
      ],
      [
        "ance",
        "_policy"
      ],
      [
        "RE",
        "EN"
      ],
      [
        "SC",
        "REEN"
      ],
      [
        "audit",
        "_account"
      ],
      [
        "SANCTION",
        "S"
      ],
      [
        "em",
        "barg"
      ],
      [
        "ez",
        "e"
      ],
      [
        "Fre",
        "eze"
      ],
      [
        "destin",
        "ed"
      ],
      [
        "restrict",
        "ed"
      ],
      [
        "compli",
        "ance_policy"
      ],
      [
        "embarg",
        "oed"
      ],
      [
        "e",
        "cu"
      ],
      [
        "ex",
        "ecu"
      ],
      [
        "at",
        "e"
      ],
      [
        "d",
        "a"
      ],
      [
        "\"}",
        "}<|"
      ],
      [
        "i",
        "ng"
      ],
      [
        "n",
        "a"
      ],
      [
        "d",
        "v"
      ],
      [
        "dv",
        "ance"
      ],
      [
        "f",
        "ro"
      ],
      [
        "at",
        "ed"
      ],
      [
        "fro",
        "m"
      ],
      [
        "C",
        "ount"
      ],
      [
        "C",
        "ate"
      ],
      [
        "g",
        "ory"
      ],
      [
        "er",
        "par"
      ],
      [
        "enti",
        "ty"
      ],
      [
        "pora",
        "te"
      ],
      [
        "cor",
        "porate"
      ],
      [
        "audit",
        "ed"
      ],
      [
        "Count",
        "erpar"
      ],
      [
        "Cate",
        "gory"
      ],
      [
        "Counterpar",
        "ty"
      ],
      [
        "de",
        "r"
      ],
      [
        "n",
        "o"
      ],
      [
        "B",
        "e"
      ],
      [
        "P",
        "u"
      ],
      [
        "ba",
        "i"
      ],
      [
        "s",
        "s"
      ],
      [
        "Pu",
        "ne"
      ],
      [
        "sti",
        "c"
      ],
      [
        "me",
        "stic"
      ],
      [
        "M",
        "um"
      ],
      [
        "Mum",
        "bai"
      ],
      [
        "ng",
        "alu"
      ],
      [
        "Be",
        "ngalu"
      ],
      [
        "Bengalu",
        "ru"
      ],
      [
        "en",
        "na"
      ],
      [
        "C",
        "U"
      ],
      [
        "Ch",
        "enna"
      ],
      [
        "Chenna",
        "i"
      ],
      [
        "\"",
        "],"
      ],
      [
        "y",
        "de"
      ],
      [
        "H",
        "yde"
      ],
      [
        "li",
        "n"
      ],
      [
        "ra",
        "bad"
      ],
      [
        "Hyde",
        "rabad"
      ],
      [
        "H",
        "_"
      ],
      [
        "De",
        "l"
      ],
      [
        "Del",
        "hi"
      ],
      [
        "transf",
        "ers"
      ],
      [
        "ri",
        "ng"
      ],
      [
        "v",
        "alu"
      ],
      [
        "tran",
        "ch"
      ],
      [
        "wi",
        "th"
      ],
      [
        "re",
        "p"
      ],
      [
        "hi",
        "p"
      ],
      [
        "lin",
        "k"
      ],
      [
        "u",
        "l"
      ],
      [
        "O",
        "NE"
      ],
      [
        "t",
        "a"
      ],
      [
        "R",
        "I"
      ],
      [
        ".",
        "\"}<|"
      ],
      [
        "reg",
        "ul"
      ],
      [
        "regul",
        "atory"
      ],
      [
        "P",
        "L"
      ],
      [
        "L",
        "t"
      ],
      [
        "Lt",
        "d"
      ],
      [
        "I",
        "nd"
      ],
      [
        "\"}",
        "]}<|"
      ],
      [
        "l",
        "ar"
      ],
      [
        "t",
        "er"
      ],
      [
        "u",
        "stri"
      ],
      [
        "Ind",
        "ustri"
      ],
      [
        "Industri",
        "es"
      ],
      [
        "H",
        "e"
      ],
      [
        "m",
        "in"
      ],
      [
        "at",
        "a"
      ],
      [
        "ut",
        "es"
      ],
      [
        "S",
        "ing"
      ],
      [
        "at",
        "es"
      ],
      [
        "e",
        "ti"
      ],
      [
        "de",
        "c"
      ],
      [
        "i",
        "ce"
      ],
      [
        "A",
        "h"
      ],
      [
        "n",
        "ti"
      ],
      [
        "av",
        "y"
      ],
      [
        "Ah",
        "me"
      ],
      [
        "ti",
        "ce"
      ],
      [
        "no",
        "tice"
      ],
      [
        "A",
        "B"
      ],
      [
        "A",
        "IN"
      ],
      [
        "A",
        "TION"
      ],
      [
        "A",
        "dvance"
      ],
      [
        "D",
        "O"
      ],
      [
        "E",
        "X"
      ],
      [
        "K",
        "E"
      ],
      [
        "L",
        "E_"
      ],
      [
        "M",
        "EN"
      ],
      [
        "S",
        "PI"
      ],
      [
        "T",
        "ATION"
      ],
      [
        "U",
        "E"
      ],
      [
        "V",
        "AL"
      ],
      [
        "V",
        "ER"
      ],
      [
        "Y",
        "_"
      ],
      [
        "_",
        "tx"
      ],
      [
        "_",
        "amount"
      ],
      [
        "_",
        "ju"
      ],
      [
        "_",
        "VAL"
      ],
      [
        "o",
        "ice"
      ],
      [
        "v",
        "oice"
      ],
      [
        "ed",
        "_ju"
      ],
      [
        "devi",
        "ates"
      ],
      [
        "pri",
        "or"
      ],
      [
        "cation",
        "s"
      ],
      [
        "cu",
        "ment"
      ],
      [
        "fi",
        "cations"
      ],
      [
        "ol",
        "ated"
      ],
      [
        "median",
        "_tx"
      ],
      [
        "sti",
        "fications"
      ],
      [
        "in",
        "voice"
      ],
      [
        "is",
        "olated"
      ],
      [
        "IF",
        "Y_"
      ],
      [
        "wi",
        "re"
      ],
      [
        "IU",
        "M"
      ],
      [
        "HIGH",
        "_VAL"
      ],
      [
        "do",
        "cument"
      ],
      [
        "MED",
        "IUM"
      ],
      [
        "execu",
        "tion"
      ],
      [
        "CU",
        "MEN"
      ],
      [
        "ta",
        "x"
      ],
      [
        "PL",
        "AIN"
      ],
      [
        "lar",
        "ation"
      ],
      [
        "He",
        "avy"
      ],
      [
        "Sing",
        "le"
      ],
      [
        "dec",
        "laration"
      ],
      [
        "AB",
        "LE_"
      ],
      [
        "DO",
        "CUMEN"
      ],
      [
        "EX",
        "PLAIN"
      ],
      [
        "SPI",
        "KE"
      ],
      [
        "VER",
        "IFY_"
      ],
      [
        "ed_ju",
        "stifications"
      ],
      [
        "median_tx",
        "_amount"
      ],
      [
        "HIGH_VAL",
        "UE"
      ],
      [
        "document",
        "ed_justifications"
      ],
      [
        "ABLE_",
        "HIGH_VALUE"
      ],
      [
        "DOCUMEN",
        "TATION"
      ],
      [
        "EXPLAIN",
        "ABLE_HIGH_VALUE"
      ],
      [
        "VERIFY_",
        "DOCUMENTATION"
      ],
      [
        "K",
        "ol"
      ],
      [
        "k",
        "ata"
      ],
      [
        "Kol",
        "kata"
      ],
      [
        "da",
        "bad"
      ],
      [
        "Ahme",
        "dabad"
      ],
      [
        "o",
        "ri"
      ],
      [
        "M",
        "ER"
      ],
      [
        "PO",
        "S_"
      ],
      [
        "AN",
        "T"
      ],
      [
        "CH",
        "ANT"
      ],
      [
        "MER",
        "CHANT"
      ],
      [
        "POS_",
        "MERCHANT"
      ],
      [
        "k",
        "e"
      ],
      [
        "A",
        "S"
      ],
      [
        "C",
        "AS"
      ],
      [
        "I",
        "T"
      ],
      [
        "S",
        "IT"
      ],
      [
        "DE",
        "PO"
      ],
      [
        "H_",
        "DEPO"
      ],
      [
        "CAS",
        "H_DEPO"
      ],
      [
        "CASH_DEPO",
        "SIT"
      ],
      [
        "der",
        "s"
      ],
      [
        "do",
        "mestic"
      ],
      [
        "D",
        "i"
      ],
      [
        "h",
        "o"
      ],
      [
        "at",
        "h"
      ],
      [
        "ve",
        "r"
      ],
      [
        "S",
        "m"
      ],
      [
        "F",
        "or"
      ],
      [
        "w",
        "ar"
      ],
      [
        "ke",
        "y"
      ],
      [
        "la",
        "p"
      ],
      [
        "o",
        "ver"
      ],
      [
        "s",
        "on"
      ],
      [
        "F",
        "AL"
      ],
      [
        "H",
        "ONE"
      ],
      [
        "I",
        "S"
      ],
      [
        "L",
        "ex"
      ],
      [
        "N",
        "_"
      ],
      [
        "N",
        "IG"
      ],
      [
        "P",
        "HONE"
      ],
      [
        "S",
        "E_"
      ],
      [
        "T",
        "CH"
      ],
      [
        "_",
        "MA"
      ],
      [
        "i",
        "cal"
      ],
      [
        "de",
        "te"
      ],
      [
        "BE",
        "NIG"
      ],
      [
        "IN",
        "DI"
      ],
      [
        "ct",
        "ed"
      ],
      [
        "AL",
        "AR"
      ],
      [
        "S_",
        "FAL"
      ],
      [
        "SM",
        "IS"
      ],
      [
        "wor",
        "d"
      ],
      [
        "DI",
        "SMIS"
      ],
      [
        "TIC",
        "_MA"
      ],
      [
        "key",
        "word"
      ],
      [
        "over",
        "lap"
      ],
      [
        "Lex",
        "ical"
      ],
      [
        "N_",
        "PHONE"
      ],
      [
        "SE_",
        "ALAR"
      ],
      [
        "dete",
        "cted"
      ],
      [
        "BENIG",
        "N_PHONE"
      ],
      [
        "INDI",
        "A"
      ],
      [
        "S_FAL",
        "SE_ALAR"
      ],
      [
        "DISMIS",
        "S_FALSE_ALAR"
      ],
      [
        "TIC_MA",
        "TCH"
      ],
      [
        "BENIGN_PHONE",
        "TIC_MATCH"
      ],
      [
        "DISMISS_FALSE_ALAR",
        "M"
      ],
      [
        "s",
        "hip"
      ],
      [
        "B",
        "RE"
      ],
      [
        "B",
        "LO"
      ],
      [
        "C",
        "K"
      ],
      [
        "C",
        "RI"
      ],
      [
        "E",
        "L"
      ],
      [
        "I",
        "AT"
      ],
      [
        "_",
        "IM"
      ],
      [
        "re",
        "ct"
      ],
      [
        "trans",
        "ship"
      ],
      [
        "AC",
        "H"
      ],
      [
        "S_",
        "BRE"
      ],
      [
        "SANCTION",
        "S_BRE"
      ],
      [
        "transf",
        "er"
      ],
      [
        "MED",
        "IAT"
      ],
      [
        "TIC",
        "AL"
      ],
      [
        "link",
        "ed"
      ],
      [
        "Di",
        "rect"
      ],
      [
        "For",
        "war"
      ],
      [
        "BLO",
        "CK"
      ],
      [
        "CRI",
        "TICAL"
      ],
      [
        "EL",
        "Y"
      ],
      [
        "_IM",
        "MEDIAT"
      ],
      [
        "transship",
        "ment"
      ],
      [
        "SANCTIONS_BRE",
        "ACH"
      ],
      [
        "Forwar",
        "ders"
      ],
      [
        "BLOCK",
        "_IMMEDIAT"
      ],
      [
        "BLOCK_IMMEDIAT",
        "ELY"
      ],
      [
        "v",
        "a"
      ],
      [
        "C",
        "u"
      ],
      [
        "e",
        "va"
      ],
      [
        "a",
        "d"
      ],
      [
        "m",
        "on"
      ],
      [
        "re",
        "n"
      ],
      [
        "ch",
        "a"
      ],
      [
        "'",
        ".\"],"
      ],
      [
        "b",
        "o"
      ],
      [
        "c",
        "ce"
      ],
      [
        "hi",
        "n"
      ],
      [
        "i",
        "ve"
      ],
      [
        "u",
        "la"
      ],
      [
        "f",
        "f"
      ],
      [
        "p",
        "h"
      ],
      [
        "o",
        "ut"
      ],
      [
        "ro",
        "ss"
      ],
      [
        "w",
        "it"
      ],
      [
        "p",
        "at"
      ],
      [
        "D",
        "et"
      ],
      [
        "ne",
        "ath"
      ],
      [
        "su",
        "cce"
      ],
      [
        "veri",
        "ng"
      ],
      [
        "be",
        "neath"
      ],
      [
        "ect",
        "ed"
      ],
      [
        "ss",
        "ive"
      ],
      [
        "ho",
        "vering"
      ],
      [
        "bo",
        "und"
      ],
      [
        "out",
        "bound"
      ],
      [
        "wit",
        "hin"
      ],
      [
        "Det",
        "ected"
      ],
      [
        "succe",
        "ssive"
      ],
      [
        "f",
        "lag"
      ],
      [
        "g",
        "ed"
      ],
      [
        "p",
        "id"
      ],
      [
        "t",
        "ed"
      ],
      [
        "ra",
        "pid"
      ],
      [
        "fi",
        "ng"
      ],
      [
        "ur",
        "fing"
      ],
      [
        "execu",
        "ted"
      ],
      [
        "ter",
        "n"
      ],
      [
        "min",
        "utes"
      ],
      [
        "Sm",
        "urfing"
      ],
      [
        "pat",
        "tern"
      ],
      [
        "flag",
        "ged"
      ],
      [
        "rapid",
        "ly"
      ],
      [
        "C",
        "um"
      ],
      [
        "i",
        "to"
      ],
      [
        "r",
        "ren"
      ],
      [
        "s",
        "pli"
      ],
      [
        "ac",
        "ross"
      ],
      [
        "cu",
        "rren"
      ],
      [
        "limit",
        "s"
      ],
      [
        "valu",
        "e"
      ],
      [
        "tranch",
        "es"
      ],
      [
        "eva",
        "de"
      ],
      [
        "mon",
        "ito"
      ],
      [
        "ula",
        "tive"
      ],
      [
        "Cum",
        "ulative"
      ],
      [
        "spli",
        "t"
      ],
      [
        "curren",
        "cy"
      ],
      [
        "monito",
        "ring"
      ],
      [
        "i",
        "de"
      ],
      [
        "u",
        "ring"
      ],
      [
        "st",
        "ru"
      ],
      [
        "ct",
        "uring"
      ],
      [
        "fi",
        "ed"
      ],
      [
        "De",
        "liberate"
      ],
      [
        "valu",
        "es"
      ],
      [
        "tranch",
        "e"
      ],
      [
        "rep",
        "orting"
      ],
      [
        "rep",
        "eti"
      ],
      [
        "nti",
        "fied"
      ],
      [
        "ide",
        "ntified"
      ],
      [
        "stru",
        "cturing"
      ],
      [
        "repeti",
        "tive"
      ],
      [
        "e",
        "e"
      ],
      [
        "p",
        "ur"
      ],
      [
        "a",
        "y"
      ],
      [
        "b",
        "b"
      ],
      [
        "s",
        "a"
      ],
      [
        "f",
        "e"
      ],
      [
        "o",
        "w"
      ],
      [
        "p",
        "e"
      ],
      [
        "a",
        "g"
      ],
      [
        "P",
        "ri"
      ],
      [
        "g",
        "in"
      ],
      [
        "f",
        "d"
      ],
      [
        "a",
        "b"
      ],
      [
        "ro",
        "u"
      ],
      [
        "t",
        "al"
      ],
      [
        "to",
        "k"
      ],
      [
        "T",
        "ran"
      ],
      [
        "}",
        ","
      ],
      [
        "ti",
        "s"
      ],
      [
        "c",
        "c"
      ],
      [
        "b",
        "y"
      ],
      [
        "u",
        "re"
      ],
      [
        "a",
        "dvance"
      ],
      [
        "r",
        "ci"
      ],
      [
        "nd",
        "it"
      ],
      [
        "ca",
        "pi"
      ],
      [
        "ex",
        "pe"
      ],
      [
        "comme",
        "rci"
      ],
      [
        "Cu",
        "stomer"
      ],
      [
        "cha",
        "se"
      ],
      [
        "pur",
        "chase"
      ],
      [
        "ndit",
        "ure"
      ],
      [
        "capi",
        "tal"
      ],
      [
        "expe",
        "nditure"
      ],
      [
        "commerci",
        "al"
      ],
      [
        "D",
        "o"
      ],
      [
        "I",
        "P"
      ],
      [
        "s",
        "action"
      ],
      [
        "ori",
        "gin"
      ],
      [
        "tok",
        "en"
      ],
      [
        "Tran",
        "saction"
      ],
      [
        "origin",
        "ated"
      ],
      [
        "ol",
        "der"
      ],
      [
        "A",
        "M"
      ],
      [
        "h",
        "older"
      ],
      [
        "p",
        "tion"
      ],
      [
        "ce",
        "ption"
      ],
      [
        "ex",
        "ception"
      ],
      [
        "fi",
        "es"
      ],
      [
        "sa",
        "tis"
      ],
      [
        "Pri",
        "or"
      ],
      [
        "AM",
        "L"
      ],
      [
        "satis",
        "fies"
      ],
      [
        "registere",
        "d"
      ],
      [
        "b",
        "d"
      ],
      [
        "f",
        "a"
      ],
      [
        "a",
        "s"
      ],
      [
        "[",
        "]}<|"
      ],
      [
        "e",
        "l"
      ],
      [
        "o",
        "le"
      ],
      [
        "c",
        "d"
      ],
      [
        "vi",
        "d"
      ],
      [
        "s",
        "i"
      ],
      [
        "f",
        "c"
      ],
      [
        "i",
        "nd"
      ],
      [
        "f",
        "b"
      ],
      [
        "s",
        "an"
      ],
      [
        "me",
        "d"
      ],
      [
        "h",
        "a"
      ],
      [
        "d",
        "d"
      ],
      [
        "M",
        "ar"
      ],
      [
        "re",
        "s"
      ],
      [
        "a",
        "a"
      ],
      [
        "ag",
        "e"
      ],
      [
        "c",
        "le"
      ],
      [
        "ol",
        "lo"
      ],
      [
        "r",
        "med"
      ],
      [
        "s",
        "ole"
      ],
      [
        "z",
        "ed"
      ],
      [
        "ar",
        "ing"
      ],
      [
        "th",
        "rou"
      ],
      [
        "transaction",
        "al"
      ],
      [
        "fi",
        "rmed"
      ],
      [
        "ro",
        "utes"
      ],
      [
        "auth",
        "ori"
      ],
      [
        "con",
        "firmed"
      ],
      [
        "no",
        "de"
      ],
      [
        "Do",
        "mestic"
      ],
      [
        "cle",
        "aring"
      ],
      [
        "sole",
        "ly"
      ],
      [
        "throu",
        "gh"
      ],
      [
        "authori",
        "zed"
      ],
      [
        "c",
        "b"
      ],
      [
        "wi",
        "ng"
      ],
      [
        "I",
        "D"
      ],
      [
        "W",
        "atch"
      ],
      [
        "f",
        "al"
      ],
      [
        "f",
        "ollo"
      ],
      [
        "m",
        "atch"
      ],
      [
        "n",
        "ation"
      ],
      [
        "de",
        "ter"
      ],
      [
        "on",
        "eti"
      ],
      [
        "li",
        "st"
      ],
      [
        "po",
        "si"
      ],
      [
        "verifi",
        "cation"
      ],
      [
        "min",
        "ed"
      ],
      [
        "ph",
        "oneti"
      ],
      [
        "Watch",
        "list"
      ],
      [
        "fal",
        "se"
      ],
      [
        "follo",
        "wing"
      ],
      [
        "nation",
        "al"
      ],
      [
        "deter",
        "mined"
      ],
      [
        "posi",
        "tive"
      ],
      [
        "phoneti",
        "c"
      ],
      [
        "ow",
        "n"
      ],
      [
        "ti",
        "z"
      ],
      [
        "er",
        "o"
      ],
      [
        "y",
        "a"
      ],
      [
        "E",
        "nti"
      ],
      [
        "i",
        "vid"
      ],
      [
        "u",
        "tion"
      ],
      [
        "u",
        "al"
      ],
      [
        "z",
        "ero"
      ],
      [
        "ci",
        "tiz"
      ],
      [
        "ol",
        "ution"
      ],
      [
        "ction",
        "ed"
      ],
      [
        "verifi",
        "es"
      ],
      [
        "ers",
        "hip"
      ],
      [
        "link",
        "age"
      ],
      [
        "ind",
        "ivid"
      ],
      [
        "san",
        "ctioned"
      ],
      [
        "res",
        "olution"
      ],
      [
        "own",
        "ership"
      ],
      [
        "Enti",
        "ty"
      ],
      [
        "citiz",
        "en"
      ],
      [
        "individ",
        "ual"
      ],
      [
        "e",
        "a"
      ],
      [
        "e",
        "b"
      ],
      [
        "a",
        "ng"
      ],
      [
        "J",
        "o"
      ],
      [
        "c",
        "f"
      ],
      [
        "d",
        "b"
      ],
      [
        "M",
        "r"
      ],
      [
        "D",
        "r"
      ],
      [
        "K",
        "O"
      ],
      [
        "T",
        "H_"
      ],
      [
        "RE",
        "A"
      ],
      [
        "NOR",
        "TH_"
      ],
      [
        "KO",
        "REA"
      ],
      [
        "NORTH_",
        "KOREA"
      ],
      [
        "k",
        "a"
      ],
      [
        "a",
        "e"
      ],
      [
        "\"",
        "]}<|"
      ],
      [
        "A",
        "NMA"
      ],
      [
        "M",
        "Y"
      ],
      [
        "R",
        "_"
      ],
      [
        "TI",
        "ONE"
      ],
      [
        "SANC",
        "TIONE"
      ],
      [
        "ANMA",
        "R_"
      ],
      [
        "MY",
        "ANMAR_"
      ],
      [
        "SANCTIONE",
        "D"
      ],
      [
        "MYANMAR_",
        "SANCTIONED"
      ],
      [
        ")",
        ".\"],"
      ],
      [
        "I",
        "R"
      ],
      [
        "IR",
        "AN"
      ],
      [
        "b",
        "c"
      ],
      [
        "B",
        "A"
      ],
      [
        "CU",
        "BA"
      ],
      [
        "a",
        "k"
      ],
      [
        "e",
        "f"
      ],
      [
        "a",
        "f"
      ],
      [
        "S",
        "Y"
      ],
      [
        "RI",
        "A"
      ],
      [
        "SY",
        "RIA"
      ],
      [
        "b",
        "f"
      ],
      [
        "d",
        "f"
      ],
      [
        "W",
        "il"
      ],
      [
        "d",
        "c"
      ],
      [
        "e",
        "c"
      ],
      [
        "D",
        "a"
      ],
      [
        "K",
        "i"
      ],
      [
        "an",
        "i"
      ],
      [
        "]",
        "},"
      ],
      [
        "}",
        "}<|"
      ],
      [
        "S",
        "h"
      ],
      [
        "i",
        "th"
      ],
      [
        "r",
        "y"
      ],
      [
        "m",
        "a"
      ],
      [
        "an",
        "a"
      ],
      [
        "P",
        "y"
      ],
      [
        "B",
        "ur"
      ],
      [
        "o",
        "o"
      ],
      [
        "Cu",
        "ba"
      ],
      [
        "B",
        "ro"
      ],
      [
        "T",
        "ho"
      ],
      [
        "Tho",
        "m"
      ],
      [
        "h",
        "n"
      ],
      [
        "Sm",
        "ith"
      ],
      [
        "m",
        "an"
      ],
      [
        "I",
        "ran"
      ],
      [
        "u",
        "b"
      ],
      [
        ")",
        ".\","
      ],
      [
        "J",
        "a"
      ],
      [
        "R",
        "ob"
      ],
      [
        "H",
        "ar"
      ],
      [
        "J",
        "on"
      ],
      [
        "Wil",
        "li"
      ],
      [
        "M",
        "i"
      ],
      [
        "P",
        "ar"
      ],
      [
        "Willi",
        "am"
      ],
      [
        "i",
        "a"
      ],
      [
        "ar",
        "a"
      ],
      [
        "S",
        "u"
      ],
      [
        "G",
        "o"
      ],
      [
        "y",
        "an"
      ],
      [
        "le",
        "y"
      ],
      [
        "n",
        "i"
      ],
      [
        "il",
        "l"
      ],
      [
        "Jo",
        "hn"
      ],
      [
        "D",
        "u"
      ],
      [
        "R",
        "o"
      ],
      [
        "R",
        "a"
      ],
      [
        "S",
        "y"
      ],
      [
        "on",
        "gy"
      ],
      [
        "er",
        "t"
      ],
      [
        "Py",
        "ongy"
      ],
      [
        "Pyongy",
        "ang"
      ],
      [
        "S",
        "te"
      ],
      [
        "i",
        "ne"
      ],
      [
        "Jon",
        "es"
      ],
      [
        "D",
        "P"
      ],
      [
        "H",
        "av"
      ],
      [
        "R",
        "K"
      ],
      [
        "DP",
        "RK"
      ],
      [
        "Hav",
        "ana"
      ],
      [
        "Thom",
        "as"
      ],
      [
        "'",
        ".\"]}<|"
      ],
      [
        "a",
        "nt"
      ],
      [
        "t",
        "t"
      ],
      [
        "e",
        "w"
      ],
      [
        "A",
        "l"
      ],
      [
        "Sy",
        "ri"
      ],
      [
        "a",
        "sh"
      ],
      [
        "B",
        "ar"
      ],
      [
        "ka",
        "sh"
      ],
      [
        "S",
        "am"
      ],
      [
        "N",
        "i"
      ],
      [
        "B",
        "a"
      ],
      [
        "Ki",
        "m"
      ],
      [
        "w",
        "n"
      ],
      [
        "al",
        "l"
      ],
      [
        "R",
        "e"
      ],
      [
        "t",
        "on"
      ],
      [
        "Da",
        "vi"
      ],
      [
        "Mar",
        "ine"
      ],
      [
        "William",
        "s"
      ],
      [
        "Rob",
        "ert"
      ],
      [
        "L",
        "o"
      ],
      [
        "D",
        "am"
      ],
      [
        "C",
        "ar"
      ],
      [
        "]",
        "}}<|"
      ],
      [
        "k",
        "in"
      ],
      [
        "M",
        "o"
      ],
      [
        "v",
        "an"
      ],
      [
        "Y",
        "ash"
      ],
      [
        "Mr",
        "s"
      ],
      [
        "P",
        "ra"
      ],
      [
        "al",
        "a"
      ],
      [
        "k",
        "er"
      ],
      [
        "R",
        "i"
      ],
      [
        "Bro",
        "wn"
      ],
      [
        "T",
        "e"
      ],
      [
        "B",
        "h"
      ],
      [
        "W",
        "al"
      ],
      [
        "C",
        "a"
      ],
      [
        "M",
        "is"
      ],
      [
        "on",
        "s"
      ],
      [
        "M",
        "a"
      ],
      [
        "e",
        "ll"
      ],
      [
        "T",
        "ra"
      ],
      [
        "Bur",
        "ma"
      ],
      [
        "Y",
        "ang"
      ],
      [
        "L",
        "eva"
      ],
      [
        "Leva",
        "nt"
      ],
      [
        "M",
        "s"
      ],
      [
        "A",
        "n"
      ],
      [
        "d",
        "on"
      ],
      [
        "ac",
        "k"
      ],
      [
        "Yang",
        "on"
      ],
      [
        "h",
        "ar"
      ],
      [
        "cu",
        "s"
      ],
      [
        "M",
        "yan"
      ],
      [
        "Myan",
        "mar"
      ],
      [
        "M",
        "or"
      ],
      [
        "P",
        "ers"
      ],
      [
        "Pers",
        "ia"
      ],
      [
        "Mis",
        "s"
      ],
      [
        "Syri",
        "a"
      ],
      [
        "d",
        "w"
      ],
      [
        "h",
        "ran"
      ],
      [
        "Te",
        "hran"
      ],
      [
        "i",
        "m"
      ],
      [
        "I",
        "n"
      ],
      [
        "In",
        "c"
      ],
      [
        "S",
        "ur"
      ],
      [
        "l",
        "or"
      ],
      [
        "ay",
        "lor"
      ],
      [
        "John",
        "son"
      ],
      [
        "M",
        "ay"
      ],
      [
        "h",
        "an"
      ],
      [
        "S",
        "ons"
      ],
      [
        "L",
        "C"
      ],
      [
        "L",
        "LC"
      ],
      [
        "T",
        "aylor"
      ],
      [
        "PL",
        "C"
      ],
      [
        "A",
        "m"
      ],
      [
        "G",
        "ar"
      ],
      [
        "G",
        "rou"
      ],
      [
        "es",
        "h"
      ],
      [
        "Grou",
        "p"
      ],
      [
        "Sur",
        "ya"
      ],
      [
        "as",
        "cus"
      ],
      [
        "Mar",
        "ti"
      ],
      [
        "Iran",
        "i"
      ],
      [
        "Dam",
        "ascus"
      ],
      [
        "M",
        "e"
      ],
      [
        "L",
        "on"
      ],
      [
        "k",
        "h"
      ],
      [
        "Ja",
        "i"
      ],
      [
        "ch",
        "ard"
      ],
      [
        "B",
        "ra"
      ],
      [
        "V",
        "i"
      ],
      [
        "Ki",
        "ran"
      ],
      [
        "J",
        "u"
      ],
      [
        "s",
        "hi"
      ],
      [
        "Sh",
        "ar"
      ],
      [
        "n",
        "er"
      ],
      [
        "J",
        "ame"
      ],
      [
        "Jame",
        "s"
      ],
      [
        "G",
        "e"
      ],
      [
        "A",
        "d"
      ],
      [
        "C",
        "o"
      ],
      [
        "Ch",
        "ar"
      ],
      [
        "ath",
        "an"
      ],
      [
        "Ri",
        "chard"
      ],
      [
        "G",
        "ra"
      ],
      [
        "M",
        "it"
      ],
      [
        "w",
        "ant"
      ],
      [
        "Go",
        "re"
      ],
      [
        "Yash",
        "want"
      ],
      [
        "P",
        "ate"
      ],
      [
        "Pate",
        "l"
      ],
      [
        "ani",
        "el"
      ],
      [
        "Mi",
        "cha"
      ],
      [
        "J",
        "en"
      ],
      [
        "N",
        "ar"
      ],
      [
        "sh",
        "a"
      ],
      [
        "Micha",
        "el"
      ],
      [
        "Har",
        "ris"
      ],
      [
        "S",
        "a"
      ],
      [
        "Par",
        "kash"
      ],
      [
        "kin",
        "s"
      ],
      [
        "B",
        "ri"
      ],
      [
        "May",
        "ur"
      ],
      [
        "Lon",
        "don"
      ],
      [
        "Jai",
        "pur"
      ],
      [
        "K",
        "a"
      ],
      [
        "gh",
        "t"
      ],
      [
        ")",
        ".\"]}<|"
      ],
      [
        "et",
        "h"
      ],
      [
        "A",
        "nd"
      ],
      [
        "C",
        "lar"
      ],
      [
        "H",
        "u"
      ],
      [
        "M",
        "ill"
      ],
      [
        "R",
        "am"
      ],
      [
        "g",
        "u"
      ],
      [
        "p",
        "son"
      ],
      [
        "le",
        "n"
      ],
      [
        "J",
        "ack"
      ],
      [
        "B",
        "en"
      ],
      [
        "nde",
        "r"
      ],
      [
        "th",
        "ers"
      ],
      [
        "Bur",
        "man"
      ],
      [
        "Bro",
        "thers"
      ],
      [
        "h",
        "am"
      ],
      [
        "j",
        "a"
      ],
      [
        "P",
        "at"
      ],
      [
        "K",
        "ory"
      ],
      [
        "Tra",
        "ders"
      ],
      [
        "Kory",
        "o"
      ],
      [
        "Wil",
        "son"
      ],
      [
        "Py",
        "o"
      ],
      [
        "W",
        "hi"
      ],
      [
        "S",
        "ha"
      ],
      [
        "K",
        "e"
      ],
      [
        "D",
        "aniel"
      ],
      [
        "K",
        "ar"
      ],
      [
        "M",
        "em"
      ],
      [
        "Du",
        "bai"
      ],
      [
        "Mem",
        "on"
      ],
      [
        "L",
        "e"
      ],
      [
        "E",
        "dw"
      ],
      [
        "M",
        "er"
      ],
      [
        "L",
        "ee"
      ],
      [
        "g",
        "i"
      ],
      [
        "Ch",
        "a"
      ],
      [
        "A",
        "k"
      ],
      [
        "g",
        "an"
      ],
      [
        "o",
        "u"
      ],
      [
        "i",
        "r"
      ],
      [
        "C",
        "oo"
      ],
      [
        "H",
        "ol"
      ],
      [
        "k",
        "ar"
      ],
      [
        "Ste",
        "ph"
      ],
      [
        "y",
        "n"
      ],
      [
        "an",
        "n"
      ],
      [
        "Marti",
        "n"
      ],
      [
        "R",
        "u"
      ],
      [
        "li",
        "e"
      ],
      [
        "And",
        "re"
      ],
      [
        "cha",
        "nt"
      ],
      [
        "Mer",
        "chant"
      ],
      [
        "ra",
        "j"
      ],
      [
        "ph",
        "er"
      ],
      [
        "oo",
        "d"
      ],
      [
        "Whi",
        "te"
      ],
      [
        "b",
        "er"
      ],
      [
        "ub",
        "er"
      ],
      [
        "W",
        "ri"
      ],
      [
        "ac",
        "h"
      ],
      [
        "Al",
        "ex"
      ],
      [
        "Ak",
        "ub"
      ],
      [
        "a",
        "ne"
      ],
      [
        "M",
        "at"
      ],
      [
        "E",
        "nt"
      ],
      [
        "K",
        "uber"
      ],
      [
        "W",
        "a"
      ],
      [
        "p",
        "ris"
      ],
      [
        "er",
        "pris"
      ],
      [
        "Rob",
        "in"
      ],
      [
        "Ent",
        "erpris"
      ],
      [
        "Enterpris",
        "es"
      ],
      [
        "t",
        "s"
      ],
      [
        "Da",
        "vid"
      ],
      [
        "E",
        "l"
      ],
      [
        "ay",
        "an"
      ],
      [
        "ci",
        "a"
      ],
      [
        "K",
        "el"
      ],
      [
        "ss",
        "a"
      ],
      [
        "G",
        "re"
      ],
      [
        "W",
        "at"
      ],
      [
        "K",
        "ris"
      ],
      [
        "Edw",
        "ard"
      ],
      [
        "S",
        "co"
      ],
      [
        "Sco",
        "tt"
      ],
      [
        "d",
        "h"
      ],
      [
        "in",
        "i"
      ],
      [
        "e",
        "ff"
      ],
      [
        "and",
        "a"
      ],
      [
        "th",
        "ew"
      ],
      [
        "Mat",
        "thew"
      ],
      [
        "M",
        "ur"
      ],
      [
        "Jack",
        "son"
      ],
      [
        "W",
        "e"
      ],
      [
        "A",
        "r"
      ],
      [
        "Y",
        "ak"
      ],
      [
        "Cuba",
        "n"
      ],
      [
        "Ca",
        "fe"
      ],
      [
        "Yak",
        "ub"
      ],
      [
        "Pra",
        "kash"
      ],
      [
        "l",
        "er"
      ],
      [
        "Mill",
        "er"
      ],
      [
        "u",
        "kh"
      ],
      [
        "re",
        "y"
      ],
      [
        "B",
        "o"
      ],
      [
        "L",
        "u"
      ],
      [
        "Ch",
        "ri"
      ],
      [
        "er",
        "ry"
      ],
      [
        "D",
        "esh"
      ],
      [
        "E",
        "van"
      ],
      [
        "g",
        "e"
      ],
      [
        "B",
        "al"
      ],
      [
        "S",
        "an"
      ],
      [
        "L",
        "ew"
      ],
      [
        "Lew",
        "is"
      ],
      [
        "Nar",
        "ayan"
      ],
      [
        "ran",
        "a"
      ],
      [
        "Davi",
        "es"
      ],
      [
        "on",
        "y"
      ],
      [
        "Davi",
        "s"
      ],
      [
        "li",
        "p"
      ],
      [
        "ve",
        "n"
      ],
      [
        "Thom",
        "pson"
      ],
      [
        "e",
        "y"
      ],
      [
        "B",
        "ak"
      ],
      [
        "El",
        "li"
      ],
      [
        "Evan",
        "s"
      ],
      [
        "sto",
        "pher"
      ],
      [
        "Ra",
        "o"
      ],
      [
        "P",
        "al"
      ],
      [
        "th",
        "y"
      ],
      [
        "S",
        "ara"
      ],
      [
        "Ste",
        "ven"
      ],
      [
        "Robert",
        "s"
      ],
      [
        "Chri",
        "stopher"
      ],
      [
        "S",
        "ar"
      ],
      [
        "H",
        "ow"
      ],
      [
        "Jo",
        "se"
      ],
      [
        "Sam",
        "i"
      ],
      [
        "P",
        "h"
      ],
      [
        "o",
        "p"
      ],
      [
        "H",
        "ay"
      ],
      [
        "ri",
        "ck"
      ],
      [
        "Su",
        "ri"
      ],
      [
        "Ad",
        "am"
      ],
      [
        "N",
        "a"
      ],
      [
        "vi",
        "n"
      ],
      [
        "a",
        "w"
      ],
      [
        "w",
        "a"
      ],
      [
        "Wri",
        "ght"
      ],
      [
        "i",
        "sh"
      ],
      [
        "w",
        "al"
      ],
      [
        "P",
        "au"
      ],
      [
        "m",
        "ukh"
      ],
      [
        "Desh",
        "mukh"
      ],
      [
        "Shar",
        "ma"
      ],
      [
        "Narayan",
        "an"
      ],
      [
        "p",
        "er"
      ],
      [
        "D",
        "on"
      ],
      [
        "K",
        "ath"
      ],
      [
        "e",
        "ri"
      ],
      [
        "p",
        "or"
      ],
      [
        "Kel",
        "ly"
      ],
      [
        "V",
        "a"
      ],
      [
        "Wal",
        "ker"
      ],
      [
        "A",
        "ar"
      ],
      [
        "c",
        "ca"
      ],
      [
        "st",
        "er"
      ],
      [
        "Mi",
        "rana"
      ],
      [
        "J",
        "an"
      ],
      [
        "i",
        "e"
      ],
      [
        "al",
        "d"
      ],
      [
        "Andre",
        "w"
      ],
      [
        "Ni",
        "ch"
      ],
      [
        "F",
        "ran"
      ],
      [
        "Gre",
        "en"
      ],
      [
        "M",
        "oo"
      ],
      [
        "z",
        "a"
      ],
      [
        "Moo",
        "re"
      ],
      [
        "an",
        "de"
      ],
      [
        "E",
        "x"
      ],
      [
        "Robin",
        "son"
      ],
      [
        "por",
        "ts"
      ],
      [
        "Ex",
        "ports"
      ],
      [
        "at",
        "t"
      ],
      [
        "Nich",
        "ol"
      ],
      [
        "A",
        "nt"
      ],
      [
        "E",
        "ri"
      ],
      [
        "G",
        "u"
      ],
      [
        "Ch",
        "and"
      ],
      [
        "Ge",
        "or"
      ],
      [
        "f",
        "er"
      ],
      [
        "ni",
        "fer"
      ],
      [
        "Jen",
        "nifer"
      ],
      [
        "A",
        "li"
      ],
      [
        "h",
        "al"
      ],
      [
        "Syri",
        "ac"
      ],
      [
        "G",
        "i"
      ],
      [
        "il",
        "lip"
      ],
      [
        "Sami",
        "ha"
      ],
      [
        "Ph",
        "illip"
      ],
      [
        "i",
        "g"
      ],
      [
        "Ch",
        "au"
      ],
      [
        "P",
        "et"
      ],
      [
        "an",
        "der"
      ],
      [
        "stic",
        "s"
      ],
      [
        "Lo",
        "gi"
      ],
      [
        "Suri",
        "ya"
      ],
      [
        "Logi",
        "stics"
      ],
      [
        "L",
        "au"
      ],
      [
        "M",
        "c"
      ],
      [
        "R",
        "yan"
      ],
      [
        "H",
        "en"
      ],
      [
        "Ch",
        "ris"
      ],
      [
        "Edward",
        "s"
      ],
      [
        "T",
        "ur"
      ],
      [
        "W",
        "ar"
      ],
      [
        "Mor",
        "ris"
      ],
      [
        "H",
        "all"
      ],
      [
        "er",
        "n"
      ],
      [
        "Su",
        "raj"
      ],
      [
        "Chris",
        "ti"
      ],
      [
        "C",
        "art"
      ],
      [
        "C",
        "on"
      ],
      [
        "D",
        "en"
      ],
      [
        "Bra",
        "d"
      ],
      [
        "il",
        "ey"
      ],
      [
        "nd",
        "a"
      ],
      [
        "Jo",
        "sh"
      ],
      [
        "C",
        "ol"
      ],
      [
        "J",
        "es"
      ],
      [
        "it",
        "a"
      ],
      [
        "S",
        "im"
      ],
      [
        "Bak",
        "er"
      ],
      [
        "A",
        "sh"
      ],
      [
        "Hu",
        "gh"
      ],
      [
        "H",
        "an"
      ],
      [
        "K",
        "ing"
      ],
      [
        "ch",
        "ell"
      ],
      [
        "ani",
        "e"
      ],
      [
        "Mit",
        "chell"
      ],
      [
        "A",
        "nder"
      ],
      [
        "Al",
        "len"
      ],
      [
        "a",
        "ce"
      ],
      [
        "D",
        "ar"
      ],
      [
        "F",
        "o"
      ],
      [
        "Ra",
        "j"
      ],
      [
        "Clar",
        "k"
      ],
      [
        "Steph",
        "en"
      ],
      [
        "Ander",
        "son"
      ],
      [
        "H",
        "ill"
      ],
      [
        "Y",
        "ou"
      ],
      [
        "You",
        "ng"
      ],
      [
        "g",
        "ar"
      ],
      [
        "net",
        "t"
      ],
      [
        "E",
        "li"
      ],
      [
        "W",
        "ood"
      ],
      [
        "o",
        "thy"
      ],
      [
        "O",
        "li"
      ],
      [
        "K",
        "en"
      ],
      [
        "an",
        "ne"
      ],
      [
        "ad",
        "h"
      ],
      [
        "Jose",
        "ph"
      ],
      [
        "e",
        "la"
      ],
      [
        "k",
        "s"
      ],
      [
        "T",
        "ri"
      ],
      [
        "O",
        "w"
      ],
      [
        "ak",
        "sh"
      ],
      [
        "Ow",
        "en"
      ],
      [
        "Ro",
        "g"
      ],
      [
        "J",
        "eff"
      ],
      [
        "ay",
        "ne"
      ],
      [
        "Mor",
        "gan"
      ],
      [
        "Tur",
        "ner"
      ],
      [
        "E",
        "k"
      ],
      [
        "W",
        "ard"
      ],
      [
        "ne",
        "z"
      ],
      [
        "T",
        "an"
      ],
      [
        "b",
        "ert"
      ],
      [
        "h",
        "ony"
      ],
      [
        "li",
        "a"
      ],
      [
        "Ant",
        "hony"
      ],
      [
        "A",
        "b"
      ],
      [
        "G",
        "au"
      ],
      [
        "Mi",
        "ch"
      ],
      [
        "B",
        "u"
      ],
      [
        "V",
        "ar"
      ],
      [
        "u",
        "g"
      ],
      [
        "w",
        "art"
      ],
      [
        "co",
        "b"
      ],
      [
        "si",
        "ca"
      ],
      [
        "Jes",
        "sica"
      ],
      [
        "S",
        "i"
      ],
      [
        "ara",
        "j"
      ],
      [
        "ac",
        "har"
      ],
      [
        "Hugh",
        "es"
      ],
      [
        "A",
        "ng"
      ],
      [
        "G",
        "reg"
      ],
      [
        "ha",
        "k"
      ],
      [
        "Me",
        "li"
      ],
      [
        "o",
        "m"
      ],
      [
        "N",
        "or"
      ],
      [
        "C",
        "ra"
      ],
      [
        "Ja",
        "son"
      ],
      [
        "G",
        "ri"
      ],
      [
        "F",
        "ar"
      ],
      [
        "n",
        "n"
      ],
      [
        "Mar",
        "sh"
      ],
      [
        "Cart",
        "er"
      ],
      [
        "B",
        "re"
      ],
      [
        "L",
        "aw"
      ],
      [
        "d",
        "har"
      ],
      [
        "Phillip",
        "s"
      ],
      [
        "K",
        "o"
      ],
      [
        "S",
        "and"
      ],
      [
        "s",
        "se"
      ],
      [
        "ed",
        "d"
      ],
      [
        "D",
        "ay"
      ],
      [
        "G",
        "a"
      ],
      [
        "H",
        "unt"
      ],
      [
        "u",
        "a"
      ],
      [
        "Harris",
        "on"
      ],
      [
        "Josh",
        "ua"
      ],
      [
        "eri",
        "ne"
      ],
      [
        "Ja",
        "cob"
      ],
      [
        "Greg",
        "ory"
      ],
      [
        "L",
        "ind"
      ],
      [
        "K",
        "u"
      ],
      [
        "ct",
        "or"
      ],
      [
        "He",
        "ath"
      ],
      [
        "Bri",
        "an"
      ],
      [
        "S",
        "e"
      ],
      [
        "Ni",
        "co"
      ],
      [
        "Kim",
        "ber"
      ],
      [
        "Coo",
        "per"
      ],
      [
        "Ru",
        "sse"
      ],
      [
        "Russe",
        "ll"
      ],
      [
        "f",
        "fi"
      ],
      [
        "Ste",
        "wart"
      ],
      [
        "Char",
        "les"
      ],
      [
        "Gri",
        "ffi"
      ],
      [
        "q",
        "u"
      ],
      [
        "lin",
        "s"
      ],
      [
        "ande",
        "z"
      ],
      [
        "ern",
        "andez"
      ],
      [
        "T",
        "im"
      ],
      [
        "Mar",
        "k"
      ],
      [
        "R",
        "ay"
      ],
      [
        "Alex",
        "ander"
      ],
      [
        "Sara",
        "h"
      ],
      [
        "is",
        "a"
      ],
      [
        "Adam",
        "s"
      ],
      [
        "Bra",
        "nd"
      ],
      [
        "H",
        "am"
      ],
      [
        "w",
        "an"
      ],
      [
        "am",
        "in"
      ],
      [
        "P",
        "a"
      ],
      [
        "ne",
        "y"
      ],
      [
        "kin",
        "son"
      ],
      [
        "Geor",
        "ge"
      ],
      [
        "Meli",
        "ssa"
      ],
      [
        "Tim",
        "othy"
      ],
      [
        "K",
        "ala"
      ],
      [
        "Elli",
        "o"
      ],
      [
        "z",
        "ab"
      ],
      [
        "Eli",
        "zab"
      ],
      [
        "Elizab",
        "eth"
      ],
      [
        "C",
        "ole"
      ],
      [
        "L",
        "isa"
      ],
      [
        "se",
        "y"
      ],
      [
        "Jon",
        "athan"
      ],
      [
        "F",
        "ra"
      ],
      [
        "or",
        "d"
      ],
      [
        "in",
        "a"
      ],
      [
        "Ch",
        "ak"
      ],
      [
        "Par",
        "ker"
      ],
      [
        "P",
        "ow"
      ],
      [
        "Ro",
        "d"
      ],
      [
        "ra",
        "m"
      ],
      [
        "B",
        "ut"
      ],
      [
        "Clar",
        "ke"
      ],
      [
        "Ke",
        "vin"
      ],
      [
        "Ash",
        "ley"
      ],
      [
        "m",
        "y"
      ],
      [
        "Am",
        "anda"
      ],
      [
        "Gar",
        "cia"
      ],
      [
        "Kris",
        "h"
      ],
      [
        "How",
        "ard"
      ],
      [
        "el",
        "le"
      ],
      [
        "Mar",
        "y"
      ],
      [
        "Ben",
        "nett"
      ],
      [
        "L",
        "i"
      ],
      [
        "M",
        "D"
      ],
      [
        "U",
        "p"
      ],
      [
        "y",
        "le"
      ],
      [
        "ne",
        "s"
      ],
      [
        "Col",
        "lins"
      ],
      [
        "am",
        "p"
      ],
      [
        "Ang",
        "ela"
      ],
      [
        "G",
        "on"
      ],
      [
        "l",
        "et"
      ],
      [
        "Y",
        "o"
      ],
      [
        "h",
        "u"
      ],
      [
        "hn",
        "an"
      ],
      [
        "Jeff",
        "rey"
      ],
      [
        "L",
        "yn"
      ],
      [
        "Brad",
        "ley"
      ],
      [
        "A",
        "g"
      ],
      [
        "H",
        "em"
      ],
      [
        "Coo",
        "k"
      ],
      [
        "Wat",
        "son"
      ],
      [
        "Ba",
        "iley"
      ],
      [
        "ri",
        "gu"
      ],
      [
        "Ch",
        "ad"
      ],
      [
        "Rod",
        "rigu"
      ],
      [
        "Rodrigu",
        "ez"
      ],
      [
        "i",
        "ka"
      ],
      [
        "Richard",
        "son"
      ],
      [
        "Mich",
        "elle"
      ],
      [
        "E",
        "m"
      ],
      [
        "ra",
        "l"
      ],
      [
        "Pri",
        "ce"
      ],
      [
        "K",
        "au"
      ],
      [
        "P",
        "e"
      ],
      [
        "ba",
        "l"
      ],
      [
        "Hen",
        "ry"
      ],
      [
        "Oli",
        "ver"
      ],
      [
        "y",
        "l"
      ],
      [
        "Sh",
        "e"
      ],
      [
        "Marti",
        "nez"
      ],
      [
        "ph",
        "y"
      ],
      [
        "Steph",
        "anie"
      ],
      [
        "Mur",
        "phy"
      ],
      [
        "H",
        "o"
      ],
      [
        "H",
        "ernandez"
      ],
      [
        "J",
        "ag"
      ],
      [
        "J",
        "ord"
      ],
      [
        "e",
        "ad"
      ],
      [
        "on",
        "g"
      ],
      [
        "Sha",
        "w"
      ],
      [
        "Nichol",
        "as"
      ],
      [
        "Jord",
        "an"
      ],
      [
        "L",
        "y"
      ],
      [
        "M",
        "al"
      ],
      [
        "Gra",
        "ham"
      ],
      [
        "Bro",
        "o"
      ],
      [
        "M",
        "ann"
      ],
      [
        "Lo",
        "p"
      ],
      [
        "Eri",
        "c"
      ],
      [
        "G",
        "il"
      ],
      [
        "i",
        "re"
      ],
      [
        "fa",
        "a"
      ],
      [
        "M",
        "u"
      ],
      [
        "st",
        "on"
      ],
      [
        "O",
        "m"
      ],
      [
        "Heath",
        "er"
      ],
      [
        "S",
        "o"
      ],
      [
        "j",
        "as"
      ],
      [
        "S",
        "ri"
      ],
      [
        "ti",
        "ka"
      ],
      [
        "Am",
        "y"
      ],
      [
        "Le",
        "on"
      ],
      [
        "E",
        "ka"
      ],
      [
        "b",
        "da"
      ],
      [
        "u",
        "sh"
      ],
      [
        "Car",
        "r"
      ],
      [
        "i",
        "se"
      ],
      [
        "Ro",
        "ss"
      ],
      [
        "art",
        "h"
      ],
      [
        "Ro",
        "se"
      ],
      [
        "B",
        "an"
      ],
      [
        "ds",
        "on"
      ],
      [
        "Re",
        "be"
      ],
      [
        "Chak",
        "ra"
      ],
      [
        "A",
        "u"
      ],
      [
        "on",
        "i"
      ],
      [
        "as",
        "m"
      ],
      [
        "Pe",
        "ar"
      ],
      [
        "a",
        "ba"
      ],
      [
        "il",
        "la"
      ],
      [
        "am",
        "an"
      ],
      [
        "Kimber",
        "ly"
      ],
      [
        "P",
        "o"
      ],
      [
        "De",
        "an"
      ],
      [
        "Sing",
        "h"
      ],
      [
        "mon",
        "d"
      ],
      [
        "Fo",
        "ster"
      ],
      [
        "T",
        "h"
      ],
      [
        "f",
        "ca"
      ],
      [
        "la",
        "s"
      ],
      [
        "Ma",
        "son"
      ],
      [
        "J",
        "ere"
      ],
      [
        "N",
        "e"
      ],
      [
        "ch",
        "er"
      ],
      [
        "Co",
        "x"
      ],
      [
        "Pat",
        "rick"
      ],
      [
        "Rog",
        "ers"
      ],
      [
        "C",
        "amp"
      ],
      [
        "N",
        "ata"
      ],
      [
        "p",
        "ta"
      ],
      [
        "de",
        "d"
      ],
      [
        "ve",
        "er"
      ],
      [
        "be",
        "ll"
      ],
      [
        "Mo",
        "ham"
      ],
      [
        "Camp",
        "bell"
      ],
      [
        "F",
        "i"
      ],
      [
        "d",
        "ce"
      ],
      [
        "d",
        "be"
      ],
      [
        "Be",
        "ll"
      ],
      [
        "cd",
        "d"
      ],
      [
        "Ellio",
        "tt"
      ],
      [
        "bd",
        "b"
      ],
      [
        "Kar",
        "en"
      ],
      [
        "Nico",
        "le"
      ],
      [
        "R",
        "on"
      ],
      [
        "y",
        "al"
      ],
      [
        "Do",
        "ug"
      ],
      [
        "Ki",
        "r"
      ],
      [
        "Fran",
        "k"
      ],
      [
        "Pet",
        "er"
      ],
      [
        "Lau",
        "ra"
      ],
      [
        "Doug",
        "las"
      ],
      [
        "S",
        "ch"
      ],
      [
        "av",
        "a"
      ],
      [
        "ay",
        "a"
      ],
      [
        "cc",
        "f"
      ],
      [
        "ry",
        "an"
      ],
      [
        "b",
        "be"
      ],
      [
        "re",
        "nce"
      ],
      [
        "for",
        "d"
      ],
      [
        "Pow",
        "ell"
      ],
      [
        "Rebe",
        "cca"
      ],
      [
        "ra",
        "h"
      ],
      [
        "Law",
        "rence"
      ],
      [
        "se",
        "n"
      ],
      [
        "Ch",
        "ou"
      ],
      [
        "bb",
        "c"
      ],
      [
        "N",
        "ag"
      ],
      [
        "ed",
        "a"
      ],
      [
        "fe",
        "b"
      ],
      [
        "R",
        "ach"
      ],
      [
        "p",
        "al"
      ],
      [
        "y",
        "d"
      ],
      [
        "ann",
        "on"
      ],
      [
        "Brand",
        "on"
      ],
      [
        "c",
        "ac"
      ],
      [
        "e",
        "ac"
      ],
      [
        "Wal",
        "la"
      ],
      [
        "Elli",
        "s"
      ],
      [
        "f",
        "ba"
      ],
      [
        "Di",
        "x"
      ],
      [
        "ff",
        "c"
      ],
      [
        "Bh",
        "at"
      ],
      [
        "Gra",
        "y"
      ],
      [
        "T",
        "ere"
      ],
      [
        "Car",
        "ol"
      ],
      [
        "Marsh",
        "all"
      ],
      [
        "M",
        "ad"
      ],
      [
        "r",
        "ya"
      ],
      [
        "ab",
        "f"
      ],
      [
        "H",
        "a"
      ],
      [
        "d",
        "da"
      ],
      [
        "i",
        "gh"
      ],
      [
        "j",
        "amin"
      ],
      [
        "ce",
        "d"
      ],
      [
        "ca",
        "a"
      ],
      [
        "bd",
        "f"
      ],
      [
        "cd",
        "f"
      ],
      [
        "Ben",
        "jamin"
      ],
      [
        "N",
        "el"
      ],
      [
        "a",
        "be"
      ],
      [
        "f",
        "ac"
      ],
      [
        "u",
        "el"
      ],
      [
        "nce",
        "nt"
      ],
      [
        "le",
        "z"
      ],
      [
        "fe",
        "c"
      ],
      [
        "Vi",
        "ncent"
      ],
      [
        "We",
        "bb"
      ],
      [
        "Nel",
        "son"
      ],
      [
        "A",
        "t"
      ],
      [
        "K",
        "han"
      ],
      [
        "S",
        "hi"
      ],
      [
        "ci",
        "s"
      ],
      [
        "fd",
        "b"
      ],
      [
        "Fran",
        "cis"
      ],
      [
        "y",
        "er"
      ],
      [
        "de",
        "e"
      ],
      [
        "ris",
        "hnan"
      ],
      [
        "Cra",
        "ig"
      ],
      [
        "N",
        "ew"
      ],
      [
        "c",
        "da"
      ],
      [
        "an",
        "ya"
      ],
      [
        "as",
        "hi"
      ],
      [
        "L",
        "es"
      ],
      [
        "R",
        "and"
      ],
      [
        "a",
        "da"
      ],
      [
        "de",
        "f"
      ],
      [
        "ri",
        "cia"
      ],
      [
        "Pat",
        "ricia"
      ],
      [
        "net",
        "h"
      ],
      [
        "fd",
        "f"
      ],
      [
        "ha",
        "an"
      ],
      [
        "Ken",
        "neth"
      ],
      [
        "c",
        "be"
      ],
      [
        "ff",
        "a"
      ],
      [
        "fa",
        "e"
      ],
      [
        "Ju",
        "stin"
      ],
      [
        "Pet",
        "ers"
      ],
      [
        "Lop",
        "ez"
      ],
      [
        "d",
        "ba"
      ],
      [
        "at",
        "ta"
      ],
      [
        "al",
        "la"
      ]
    ]
  }
}