{
  "version": "1.0",
  "truncation": null,
  "padding": null,
  "added_tokens": [
    {
      "id": 0,
      "content": "<|pad|>",
      "single_word": false,
      "lstrip": false,
      "rstrip": false,
      "normalized": false,
      "special": true
    },
    {
      "id": 1,
      "content": "<|unk|>",
      "single_word": false,
      "lstrip": false,
      "rstrip": false,
      "normalized": false,
      "special": true
    },
    {
      "id": 2,
      "content": "<|bos|>",
      "single_word": false,
      "lstrip": false,
      "rstrip": false,
      "normalized": false,
      "special": true
    },
    {
      "id": 3,
      "content": "<|eos|>",
      "single_word": false,
      "lstrip": false,
      "rstrip": false,
      "normalized": false,
      "special": true
    },
    {
      "id": 4,
      "content": "<|context_start|>",
      "single_word": false,
      "lstrip": false,
      "rstrip": false,
      "normalized": false,
      "special": true
    },
    {
      "id": 5,
      "content": "<|context_end|>",
      "single_word": false,
      "lstrip": false,
      "rstrip": false,
      "normalized": false,
      "special": true
    },
    {
      "id": 6,
      "content": "<|target_start|>",
      "single_word": false,
      "lstrip": false,
      "rstrip": false,
      "normalized": false,
      "special": true
    },
    {
      "id": 7,
      "content": "<|target_end|>",
      "single_word": false,
      "lstrip": false,
      "rstrip": false,
      "normalized": false,
      "special": true
    },
    {
      "id": 8,
      "content": "<|risk_low|>",
      "single_word": false,
      "lstrip": false,
      "rstrip": false,
      "normalized": false,
      "special": true
    },
    {
      "id": 9,
      "content": "<|risk_medium|>",
      "single_word": false,
      "lstrip": false,
      "rstrip": false,
      "normalized": false,
      "special": true
    },
    {
      "id": 10,
      "content": "<|risk_high|>",
      "single_word": false,
      "lstrip": false,
      "rstrip": false,
      "normalized": false,
      "special": true
    },
    {
      "id": 11,
      "content": "<|risk_critical|>",
      "single_word": false,
      "lstrip": false,
      "rstrip": false,
      "normalized": false,
      "special": true
    },
    {
      "id": 12,
      "content": "<|entity_person|>",
      "single_word": false,
      "lstrip": false,
      "rstrip": false,
      "normalized": false,
      "special": true
    },
    {
      "id": 13,
      "content": "<|entity_org|>",
      "single_word": false,
      "lstrip": false,
      "rstrip": false,
      "normalized": false,
      "special": true
    },
    {
      "id": 14,
      "content": "<|entity_geo|>",
      "single_word": false,
      "lstrip": false,
      "rstrip": false,
      "normalized": false,
      "special": true
    }
  ],
  "normalizer": {
    "type": "NFKC"
  },
  "pre_tokenizer": {
    "type": "Sequence",
    "pretokenizers": [
      {
        "type": "Whitespace"
      },
      {
        "type": "Digits",
        "individual_digits": true
      }
    ]
  },
  "post_processor": null,
  "decoder": null,
  "model": {
    "type": "BPE",
    "dropout": null,
    "unk_token": "<|unk|>",
    "continuing_subword_prefix": null,
    "end_of_word_suffix": null,
    "fuse_unk": false,
    "byte_fallback": false,
    "ignore_merges": false,
    "vocab": {
      "<|pad|>": 0,
      "<|unk|>": 1,
      "<|bos|>": 2,
      "<|eos|>": 3,
      "<|context_start|>": 4,
      "<|context_end|>": 5,
      "<|target_start|>": 6,
      "<|target_end|>": 7,
      "<|risk_low|>": 8,
      "<|risk_medium|>": 9,
      "<|risk_high|>": 10,
      "<|risk_critical|>": 11,
      "<|entity_person|>": 12,
      "<|entity_org|>": 13,
      "<|entity_geo|>": 14,
      "!": 15,
      "\"": 16,
      "#": 17,
      "$": 18,
      "%": 19,
      "&": 20,
      "'": 21,
      "(": 22,
      ")": 23,
      "*": 24,
      "+": 25,
      ",": 26,
      "-": 27,
      ".": 28,
      "/": 29,
      "0": 30,
      "1": 31,
      "2": 32,
      "3": 33,
      "4": 34,
      "5": 35,
      "6": 36,
      "7": 37,
      "8": 38,
      "9": 39,
      ":": 40,
      ";": 41,
      "<": 42,
      "=": 43,
      ">": 44,
      "?": 45,
      "@": 46,
      "A": 47,
      "B": 48,
      "C": 49,
      "D": 50,
      "E": 51,
      "F": 52,
      "G": 53,
      "H": 54,
      "I": 55,
      "J": 56,
      "K": 57,
      "L": 58,
      "M": 59,
      "N": 60,
      "O": 61,
      "P": 62,
      "Q": 63,
      "R": 64,
      "S": 65,
      "T": 66,
      "U": 67,
      "V": 68,
      "W": 69,
      "X": 70,
      "Y": 71,
      "Z": 72,
      "[": 73,
      "\\": 74,
      "]": 75,
      "^": 76,
      "_": 77,
      "`": 78,
      "a": 79,
      "b": 80,
      "c": 81,
      "d": 82,
      "e": 83,
      "f": 84,
      "g": 85,
      "h": 86,
      "i": 87,
      "j": 88,
      "k": 89,
      "l": 90,
      "m": 91,
      "n": 92,
      "o": 93,
      "p": 94,
      "q": 95,
      "r": 96,
      "s": 97,
      "t": 98,
      "u": 99,
      "v": 100,
      "w": 101,
      "x": 102,
      "y": 103,
      "z": 104,
      "{": 105,
      "|": 106,
      "}": 107,
      "~": 108,
      "¡": 109,
      "¢": 110,
      "£": 111,
      "¤": 112,
      "¥": 113,
      "¦": 114,
      "§": 115,
      "¨": 116,
      "©": 117,
      "ª": 118,
      "«": 119,
      "¬": 120,
      "®": 121,
      "¯": 122,
      "°": 123,
      "±": 124,
      "²": 125,
      "³": 126,
      "´": 127,
      "µ": 128,
      "¶": 129,
      "·": 130,
      "¸": 131,
      "¹": 132,
      "º": 133,
      "»": 134,
      "¼": 135,
      "½": 136,
      "¾": 137,
      "¿": 138,
      "À": 139,
      "Á": 140,
      "Â": 141,
      "Ã": 142,
      "Ä": 143,
      "Å": 144,
      "Æ": 145,
      "Ç": 146,
      "È": 147,
      "É": 148,
      "Ê": 149,
      "Ë": 150,
      "Ì": 151,
      "Í": 152,
      "Î": 153,
      "Ï": 154,
      "Ð": 155,
      "Ñ": 156,
      "Ò": 157,
      "Ó": 158,
      "Ô": 159,
      "Õ": 160,
      "Ö": 161,
      "×": 162,
      "Ø": 163,
      "Ù": 164,
      "Ú": 165,
      "Û": 166,
      "Ü": 167,
      "Ý": 168,
      "Þ": 169,
      "ß": 170,
      "à": 171,
      "á": 172,
      "â": 173,
      "ã": 174,
      "ä": 175,
      "å": 176,
      "æ": 177,
      "ç": 178,
      "è": 179,
      "é": 180,
      "ê": 181,
      "ë": 182,
      "ì": 183,
      "í": 184,
      "î": 185,
      "ï": 186,
      "ð": 187,
      "ñ": 188,
      "ò": 189,
      "ó": 190,
      "ô": 191,
      "õ": 192,
      "ö": 193,
      "÷": 194,
      "ø": 195,
      "ù": 196,
      "ú": 197,
      "û": 198,
      "ü": 199,
      "ý": 200,
      "þ": 201,
      "ÿ": 202,
      "Ā": 203,
      "ā": 204,
      "Ă": 205,
      "ă": 206,
      "Ą": 207,
      "ą": 208,
      "Ć": 209,
      "ć": 210,
      "Ĉ": 211,
      "ĉ": 212,
      "Ċ": 213,
      "ċ": 214,
      "Č": 215,
      "č": 216,
      "Ď": 217,
      "ď": 218,
      "Đ": 219,
      "đ": 220,
      "Ē": 221,
      "ē": 222,
      "Ĕ": 223,
      "ĕ": 224,
      "Ė": 225,
      "ė": 226,
      "Ę": 227,
      "ę": 228,
      "Ě": 229,
      "ě": 230,
      "Ĝ": 231,
      "ĝ": 232,
      "Ğ": 233,
      "ğ": 234,
      "Ġ": 235,
      "ġ": 236,
      "Ģ": 237,
      "ģ": 238,
      "Ĥ": 239,
      "ĥ": 240,
      "Ħ": 241,
      "ħ": 242,
      "Ĩ": 243,
      "ĩ": 244,
      "Ī": 245,
      "ī": 246,
      "Ĭ": 247,
      "ĭ": 248,
      "Į": 249,
      "į": 250,
      "İ": 251,
      "ı": 252,
      "Ĳ": 253,
      "ĳ": 254,
      "Ĵ": 255,
      "ĵ": 256,
      "Ķ": 257,
      "ķ": 258,
      "ĸ": 259,
      "Ĺ": 260,
      "ĺ": 261,
      "Ļ": 262,
      "ļ": 263,
      "Ľ": 264,
      "ľ": 265,
      "Ŀ": 266,
      "ŀ": 267,
      "Ł": 268,
      "ł": 269,
      "Ń": 270,
      "\":": 271,
      "\",": 272,
      "nt": 273,
      "ti": 274,
      "an": 275,
      "on": 276,
      "re": 277,
      "me": 278,
      "ev": 279,
      "ar": 280,
      "ic": 281,
      "id": 282,
      "tion": 283,
      "co": 284,
      "ty": 285,
      "ri": 286,
      "unt": 287,
      "st": 288,
      "ac": 289,
      "ed": 290,
      "ci": 291,
      "en": 292,
      "am": 293,
      "ie": 294,
      "],": 295,
      "_id": 296,
      "{\"": 297,
      "typ": 298,
      "ge": 299,
      "er": 300,
      "al": 301,
      "ran": 302,
      "pie": 303,
      "cipie": 304,
      "cipient": 305,
      "recipient": 306,
      "in": 307,
      "dev": 308,
      "tx": 309,
      "<|": 310,
      "t_": 311,
      "|>": 312,
      "or": 313,
      "ice": 314,
      "device": 315,
      "lo": 316,
      "action": 317,
      "AC": 318,
      "ACC": 319,
      "ount": 320,
      "EV": 321,
      "amount": 322,
      "count": 323,
      "[\"": 324,
      "el": 325,
      "\"}": 326,
      "DEV": 327,
      "_typ": 328,
      "ce": 329,
      "IN": 330,
      "rans": 331,
      "ome": 332,
      "pri": 333,
      "mar": 334,
      "trans": 335,
      "ba": 336,
      "primar": 337,
      "primary": 338,
      "ation": 339,
      "ER": 340,
      "transaction": 341,
      "cu": 342,
      "cation": 343,
      "location": 344,
      "ex": 345,
      "_ev": 346,
      "iden": 347,
      "ed_": 348,
      "_eviden": 349,
      "_evidence": 350,
      "ng": 351,
      "\"],": 352,
      "amp": 353,
      "art": 354,
      "tar": 355,
      "TX": 356,
      "time": 357,
      "stamp": 358,
      "recipient_typ": 359,
      "tx_id": 360,
      "device_id": 361,
      "timestamp": 362,
      "recipient_type": 363,
      "transactions": 364,
      "end": 365,
      "_tx": 366,
      "k_": 367,
      "ntex": 368,
      "ical": 369,
      "contex": 370,
      "start": 371,
      "account": 372,
      "typical": 373,
      "get_": 374,
      "|>{\"": 375,
      "target_": 376,
      "_tx_": 377,
      "context_": 378,
      "ol": 379,
      "at": 380,
      "and": 381,
      "por": 382,
      "ON": 383,
      "di": 384,
      "ris": 385,
      "ine": 386,
      "na": 387,
      "da": 388,
      "ne": 389,
      "sel": 390,
      "basel": 391,
      "baseline": 392,
      "th": 393,
      "DI": 394,
      "city": 395,
      "stome": 396,
      "stomer": 397,
      "range": 398,
      "day": 399,
      "nd": 400,
      "ME": 401,
      "AR": 402,
      "ting": 403,
      "reco": 404,
      "porting": 405,
      "home": 406,
      "medi": 407,
      "er_evidence": 408,
      "counter_evidence": 409,
      "customer": 410,
      "median": 411,
      "sh": 412,
      "PO": 413,
      "[],": 414,
      "ur": 415,
      "ch": 416,
      "up": 417,
      "MEDI": 418,
      "EN": 419,
      "\"},": 420,
      "tw": 421,
      "gy": 422,
      "mme": 423,
      "\"]": 424,
      ".\"]": 425,
      "[{\"": 426,
      "_device": 427,
      "_na": 428,
      "_baseline": 429,
      "_city": 430,
      "_range": 431,
      "_day": 432,
      "lev": 433,
      "olo": 434,
      "per": 435,
      "pol": 436,
      "sup": 437,
      "tri": 438,
      "},": 439,
      "}<|": 440,
      "retri": 441,
      "eved_": 442,
      "icie": 443,
      "edge": 444,
      "|><|": 445,
      "ork_": 446,
      "\"}],": 447,
      "\"}<|": 448,
      "_typolo": 449,
      "primary_device": 450,
      "primary_typolo": 451,
      "ed_action": 452,
      "k_lev": 453,
      "account_id": 454,
      "account_baseline": 455,
      "typical_tx_": 456,
      "typical_range": 457,
      "target_end": 458,
      "target_start": 459,
      "_tx_amount": 460,
      "context_end": 461,
      "context_start": 462,
      "risk_lev": 463,
      "netw": 464,
      "nded_action": 465,
      "recomme": 466,
      "porting_evidence": 467,
      "home_city": 468,
      "customer_na": 469,
      "median_tx_amount": 470,
      "POL": 471,
      ".\"]}<|": 472,
      "per_day": 473,
      "policie": 474,
      "supporting_evidence": 475,
      "retrieved_": 476,
      "edges": 477,
      "ork_edges": 478,
      "primary_typology": 479,
      "typical_tx_per_day": 480,
      "risk_level": 481,
      "network_edges": 482,
      "recommended_action": 483,
      "customer_name": 484,
      "policies": 485,
      "retrieved_policies": 486,
      "to": 487,
      "TI": 488,
      "hi": 489,
      "AN": 490,
      "SE": 491,
      "ring": 492,
      "PER": 493,
      "SON": 494,
      "PERSON": 495,
      "ing": 496,
      "->": 497,
      "NSE": 498,
      "TER": 499,
      "UNSE": 500,
      "INTER": 501,
      "ARY": 502,
      "MEDIARY": 503,
      "UNSEEN": 504,
      "INTERMEDIARY": 505,
      "INR": 506,
      "is": 507,
      "ate": 508,
      "AM": 509,
      "resh": 510,
      "old": 511,
      "thresh": 512,
      "threshold": 513,
      "val": 514,
      "ard": 515,
      "St": 516,
      "andard": 517,
      "Standard": 518,
      "ted": 519,
      "te": 520,
      "Ch": 521,
      "wi": 522,
      "ni": 523,
      "ve": 524,
      "ecu": 525,
      "ro": 526,
      "ory": 527,
      "cha": 528,
      "gni": 529,
      "zed": 530,
      "AML": 531,
      "gnized": 532,
      "LE": 533,
      "with": 534,
      "ju": 535,
      "ad": 536,
      "AL": 537,
      "dic": 538,
      "risdic": 539,
      "jurisdic": 540,
      "jurisdiction": 541,
      "eng": 542,
      "Re": 543,
      "nter": 544,
      "il": 545,
      "IG": 546,
      "nti": 547,
      "Mu": 548,
      "VER": 549,
      "ntity": 550,
      "LO": 551,
      "LOW": 552,
      "inter": 553,
      "TION": 554,
      "enna": 555,
      "Chenna": 556,
      "Chennai": 557,
      "uru": 558,
      "Pu": 559,
      "mba": 560,
      "Beng": 561,
      "aluru": 562,
      "Bengaluru": 563,
      "Mumba": 564,
      "Mumbai": 565,
      "Pune": 566,
      "era": 567,
      "bad": 568,
      "au": 569,
      "Hy": 570,
      "dera": 571,
      "Hydera": 572,
      "Hyderabad": 573,
      "Del": 574,
      "Delhi": 575,
      "ho": 576,
      "gh": 577,
      "UR": 578,
      "ING": 579,
      "ecution": 580,
      "oni": 581,
      "Al": 582,
      "HIG": 583,
      "IE": 584,
      "HIGH": 585,
      "con": 586,
      "ob": 587,
      "Mer": 588,
      "chant": 589,
      "Merchant": 590,
      "do": 591,
      "ist": 592,
      "ved": 593,
      "IF": 594,
      "entity": 595,
      "fro": 596,
      "gory": 597,
      "ue": 598,
      "ment": 599,
      "cument": 600,
      "dited": 601,
      "ategory": 602,
      "value": 603,
      "VERIF": 604,
      "audited": 605,
      "document": 606,
      "from": 607,
      "All": 608,
      "CLE": 609,
      "NON": 610,
      "mpor": 611,
      "moni": 612,
      "ser": 613,
      "cognized": 614,
      "geo": 615,
      "toring": 616,
      "vals": 617,
      "tempor": 618,
      "within": 619,
      "Recognized": 620,
      "intervals": 621,
      "obser": 622,
      "CLEAR": 623,
      "NONE": 624,
      "monitoring": 625,
      "temporal": 626,
      "observed": 627,
      "LA": 628,
      "atch": 629,
      "es": 630,
      "ru": 631,
      "Cu": 632,
      "SM": 633,
      "VE": 634,
      "cons": 635,
      "ct": 636,
      "AT": 637,
      "OR": 638,
      "Y_": 639,
      "match": 640,
      "iste": 641,
      "INDI": 642,
      "ATION": 643,
      "_V": 644,
      "SAN": 645,
      "SANC": 646,
      "be": 647,
      "ff": 648,
      "CU": 649,
      "ers": 650,
      "van": 651,
      "pur": 652,
      "tal": 653,
      "ya": 654,
      "le": 655,
      "Mand": 656,
      "bi": 657,
      "und": 658,
      "ha": 659,
      "se": 660,
      "Un": 661,
      "min": 662,
      "Sing": 663,
      "LC": 664,
      "under": 665,
      "gin": 666,
      "Hi": 667,
      "rad": 668,
      ")\"],": 669,
      "CT": 670,
      "Ex": 671,
      "FING": 672,
      "GAT": 673,
      "RU": 674,
      "REV": 675,
      "ST": 676,
      "STI": 677,
      "_SM": 678,
      "_REV": 679,
      "fers": 680,
      "off": 681,
      "uring": 682,
      "ute": 683,
      "tive": 684,
      "reporting": 685,
      "stru": 686,
      "devices": 687,
      "low": 688,
      "locity": 689,
      "ceil": 690,
      "INVE": 691,
      "transfers": 692,
      "execution": 693,
      "atory": 694,
      "recognized": 695,
      "urs": 696,
      "total": 697,
      "vering": 698,
      "velocity": 699,
      "ecutive": 700,
      "hours": 701,
      "hovering": 702,
      "URING": 703,
      "URFING": 704,
      "IEW": 705,
      "consecutive": 706,
      "cturing": 707,
      "OR_REV": 708,
      "below": 709,
      "Mandatory": 710,
      "Unrecognized": 711,
      "minute": 712,
      "CTURING": 713,
      "Execution": 714,
      "GATOR_REV": 715,
      "RUCTURING": 716,
      "STRUCTURING": 717,
      "STIGATOR_REV": 718,
      "_SMURFING": 719,
      "structuring": 720,
      "ceiling": 721,
      "INVESTIGATOR_REV": 722,
      "totaling": 723,
      "minutes": 724,
      "STRUCTURING_SMURFING": 725,
      "INVESTIGATOR_REVIEW": 726,
      "red": 727,
      "rior": 728,
      "vie": 729,
      "oti": 730,
      "Ori": 731,
      "LLC": 732,
      "AB": 733,
      "CH": 734,
      "Category": 735,
      "DO": 736,
      "EX": 737,
      "MER": 738,
      "NT": 739,
      "OM": 740,
      "PLA": 741,
      "Prior": 742,
      "T_": 743,
      "UE": 744,
      "UM": 745,
      "_HIGH": 746,
      "category": 747,
      "for": 748,
      "fil": 749,
      "giste": 750,
      "ition": 751,
      "iate": 752,
      "noti": 753,
      "qu": 754,
      "rpor": 755,
      "revie": 756,
      "registe": 757,
      "corpor": 758,
      "acqu": 759,
      "deviate": 760,
      "INAB": 761,
      "ed_counter_evidence": 762,
      "ated": 763,
      "MENT": 764,
      "MEDIUM": 765,
      "high": 766,
      "ANOM": 767,
      "ANT_": 768,
      "isition": 769,
      "thresholds": 770,
      "chase": 771,
      "LE_HIGH": 772,
      "advan": 773,
      "ALUE": 774,
      "IED": 775,
      "VERIFY_": 776,
      "VERIFIED": 777,
      "documentation": 778,
      "documented_counter_evidence": 779,
      "Customer": 780,
      "matches": 781,
      "_VALUE": 782,
      "CUMENT": 783,
      "purchase": 784,
      "Single": 785,
      "ginated": 786,
      "High": 787,
      "Originated": 788,
      "CHANT_": 789,
      "DOCUMENT": 790,
      "EXPLA": 791,
      "MERCHANT_": 792,
      "filed": 793,
      "notice": 794,
      "review": 795,
      "registered": 796,
      "corporate": 797,
      "acquisition": 798,
      "deviates": 799,
      "INABLE_HIGH": 800,
      "advance": 801,
      "VERIFY_DOCUMENT": 802,
      "EXPLAINABLE_HIGH": 803,
      "MERCHANT_VERIFIED": 804,
      "VERIFY_DOCUMENTATION": 805,
      "EXPLAINABLE_HIGH_VALUE": 806,
      ")\",": 807,
      "INDIA": 808,
      "ez": 809,
      "Fre": 810,
      "ITI": 811,
      "ked": 812,
      "lin": 813,
      "pro": 814,
      "hibi": 815,
      "jurisdictions": 816,
      "eze": 817,
      "Freeze": 818,
      "linked": 819,
      "prohibi": 820,
      "prohibited": 821,
      "CAL": 822,
      "Trad": 823,
      "Trading": 824,
      "la": 825,
      "ra": 826,
      "ta": 827,
      "de": 828,
      "ub": 829,
      "ak": 830,
      "as": 831,
      "ir": 832,
      "Sy": 833,
      "Syri": 834,
      "Am": 835,
      "ka": 836,
      "Di": 837,
      "Iran": 838,
      "Sub": 839,
      "gg": 840,
      "han": 841,
      "vid": 842,
      "les": 843,
      "indi": 844,
      "Syria": 845,
      "sol": 846,
      "tok": 847,
      "str": 848,
      "BEN": 849,
      "DU": 850,
      "Entity": 851,
      "FAL": 852,
      "IS": 853,
      "IDU": 854,
      "N_": 855,
      "OVER": 856,
      "S_": 857,
      "SITI": 858,
      "Trans": 859,
      "TY_": 860,
      "VIDU": 861,
      "_PO": 862,
      "_PERSON": 863,
      "by": 864,
      "cted": 865,
      "dome": 866,
      "fir": 867,
      "ms": 868,
      "sti": 869,
      "ution": 870,
      "ual": 871,
      "zen": 872,
      "tizen": 873,
      "resol": 874,
      "string": 875,
      "citizen": 876,
      "DISM": 877,
      "ENTI": 878,
      "SE_PO": 879,
      "tected": 880,
      "AL_PERSON": 881,
      "engine": 882,
      "IGN_": 883,
      "confir": 884,
      "LAP": 885,
      "rules": 886,
      "consiste": 887,
      "INDIVIDU": 888,
      "detected": 889,
      "Amount": 890,
      "Substring": 891,
      "vidual": 892,
      "individual": 893,
      "token": 894,
      "BENIGN_": 895,
      "FALSE_PO": 896,
      "ISS_": 897,
      "OVERLAP": 898,
      "SITIVE": 899,
      "Transaction": 900,
      "TY_OVERLAP": 901,
      "domesti": 902,
      "resolution": 903,
      "DISMISS_": 904,
      "ENTITY_OVERLAP": 905,
      "confirms": 906,
      "consistent": 907,
      "INDIVIDUAL_PERSON": 908,
      "BENIGN_ENTITY_OVERLAP": 909,
      "FALSE_POSITIVE": 910,
      "domestic": 911,
      "DISMISS_FALSE_POSITIVE": 912,
      "vi": 913,
      "CR": 914,
      "D_": 915,
      "EE": 916,
      "ES": 917,
      "E_": 918,
      "FR": 919,
      "GAN": 920,
      "IO": 921,
      "IZ": 922,
      "S_V": 923,
      "ZE_": 924,
      "fla": 925,
      "list": 926,
      "nation": 927,
      "watch": 928,
      "rect": 929,
      "restr": 930,
      "icted": 931,
      "AND_": 932,
      "wire": 933,
      "Recipient": 934,
      "internation": 935,
      "TIONS_V": 936,
      "LATION": 937,
      "ATE": 938,
      "ORGAN": 939,
      "SANCTIONS_V": 940,
      "ITICAL": 941,
      "CALATE": 942,
      "Direct": 943,
      "gged": 944,
      "CRITICAL": 945,
      "EEZE_": 946,
      "ESCALATE": 947,
      "FREEZE_": 948,
      "IOLATION": 949,
      "IZATION": 950,
      "flagged": 951,
      "lists": 952,
      "watchlists": 953,
      "restricted": 954,
      "AND_ESCALATE": 955,
      "international": 956,
      "ORGANIZATION": 957,
      "SANCTIONS_VIOLATION": 958,
      "FREEZE_AND_ESCALATE": 959,
      "Cuba": 960,
      "Ra": 961,
      "Mo": 962,
      "ara": 963,
      "ari": 964,
      "ee": 965,
      "ab": 966,
      "ag": 967,
      "IA": 968,
      "RIA": 969,
      "SY": 970,
      "SYRIA": 971,
      "Lu": 972,
      "BA": 973,
      "CUBA": 974,
      "shi": 975,
      "ah": 976,
      "ay": 977,
      "df": 978,
      "ani": 979,
      "IR": 980,
      "IRAN": 981,
      "bc": 982,
      "tor": 983,
      "aa": 984,
      "ai": 985,
      "ury": 986,
      "dc": 987,
      "Bal": 988,
      "Enter": 989,
      "ses": 990,
      "prises": 991,
      "Enterprises": 992,
      "ae": 993,
      "bd": 994,
      "ew": 995,
      "fe": 996,
      "iran": 997,
      "xury": 998,
      "Reta": 999,
      "Luxury": 1000,
      "Retail": 1001,
      "Motor": 1002,
      "Motors": 1003,
      "cc": 1004,
      "har": 1005,
      "ja": 1006,
      "rish": 1007,
      "fd": 1008,
      "ell": 1009,
      "Jew": 1010,
      "Ka": 1011,
      "ellers": 1012,
      "Jewellers": 1013,
      "hal": 1014,
      "ma": 1015,
      "it": 1016,
      "kar": 1017,
      "sha": 1018,
      "fc": 1019,
      "Sa": 1020,
      "dd": 1021,
      "Bha": 1022,
      "Du": 1023,
      "Su": 1024,
      "bb": 1025,
      "dh": 1026,
      "ef": 1027,
      "cf": 1028,
      "wal": 1029,
      "bf": 1030,
      "Man": 1031,
      "Sur": 1032,
      "af": 1033,
      "ini": 1034,
      "ala": 1035,
      "Ram": 1036,
      "Ma": 1037,
      "An": 1038,
      "Go": 1039,
      "Na": 1040,
      "Ya": 1041,
      "ana": 1042,
      "Sh": 1043,
      "nan": 1044,
      "ec": 1045,
      "ora": 1046,
      "hat": 1047,
      "Chand": 1048,
      "ea": 1049,
      "pal": 1050,
      "va": 1051,
      "De": 1052,
      "ca": 1053,
      "man": 1054,
      "ry": 1055,
      "ath": 1056,
      "Ni": 1057,
      "eb": 1058,
      "cd": 1059,
      "athan": 1060,
      "Ba": 1061,
      "Sam": 1062,
      "riya": 1063,
      "Krish": 1064,
      "Surya": 1065,
      "Raj": 1066,
      "Pal": 1067,
      "Se": 1068,
      "Tan": 1069,
      "db": 1070,
      "Pra": 1071,
      "li": 1072,
      "aksh": 1073,
      "San": 1074,
      "fb": 1075,
      "Chau": 1076,
      "Cho": 1077,
      "hak": 1078,
      "Ko": 1079,
      "Sar": 1080,
      "gar": 1081,
      "wa": 1082,
      "Ek": 1083,
      "yan": 1084,
      "Kar": 1085,
      "Har": 1086,
      "Bhat": 1087,
      "So": 1088,
      "Ad": 1089,
      "Pat": 1090,
      "cb": 1091,
      "ach": 1092,
      "Ku": 1093,
      "ia": 1094,
      "Syriac": 1095,
      "Var": 1096,
      "Up": 1097,
      "Yash": 1098,
      "Kub": 1099,
      "Kuber": 1100,
      "fa": 1101,
      "Yak": 1102,
      "hu": 1103,
      "ang": 1104,
      "Yakub": 1105,
      "Gu": 1106,
      "Tri": 1107,
      "agar": 1108,
      "ban": 1109,
      "Cuban": 1110,
      "Dev": 1111,
      "He": 1112,
      "aman": 1113,
      "et": 1114,
      "Chak": 1115,
      "Bu": 1116,
      "ush": 1117,
      "Lo": 1118,
      "Sri": 1119,
      "gha": 1120,
      "Miran": 1121,
      "Irani": 1122,
      "Suriya": 1123,
      "Mirana": 1124,
      "Me": 1125,
      "adh": 1126,
      "wam": 1127,
      "Bar": 1128,
      "Da": 1129,
      "esh": 1130,
      "kh": 1131,
      "In": 1132,
      "bir": 1133,
      "Kiran": 1134,
      "Gau": 1135,
      "War": 1136,
      "ata": 1137,
      "Eka": 1138,
      "Mal": 1139,
      "ram": 1140,
      "Cha": 1141,
      "Char": 1142,
      "Om": 1143,
      "Mad": 1144,
      "ika": 1145,
      "za": 1146,
      "Gol": 1147,
      "Mi": 1148,
      "Jan": 1149,
      "Vas": 1150,
      "eer": 1151,
      "im": 1152,
      "riti": 1153,
      "ali": 1154,
      "Ja": 1155,
      "achi": 1156,
      "Vi": 1157,
      "sa": 1158,
      "araj": 1159,
      "Siran": 1160,
      "att": 1161,
      "Sirani": 1162,
      "Ag": 1163,
      "Ar": 1164,
      "Kala": 1165,
      "Shan": 1166,
      "Yo": 1167,
      "jas": 1168,
      "Pa": 1169,
      "adi": 1170,
      "vya": 1171,
      "upta": 1172,
      "Aar": 1173,
      "Das": 1174,
      "Jag": 1175,
      "dar": 1176,
      "yal": 1177,
      "jee": 1178,
      "raj": 1179,
      "Inc": 1180,
      "Mit": 1181,
      "Sha": 1182,
      "rishnan": 1183,
      "Gro": 1184,
      "ahal": 1185,
      "Nara": 1186,
      "illa": 1187,
      "Hari": 1188,
      "Par": 1189,
      "ade": 1190,
      "Chou": 1191,
      "Kam": 1192,
      "anathan": 1193,
      "veer": 1194,
      "vani": 1195,
      "Lal": 1196,
      "gi": 1197,
      "ul": 1198,
      "atta": 1199,
      "anda": 1200,
      "akshi": 1201,
      "Chaudh": 1202,
      "Thak": 1203,
      "Krishna": 1204,
      "Palla": 1205,
      "Jo": 1206,
      "Kal": 1207,
      "Lad": 1208,
      "Rad": 1209,
      "Wa": 1210,
      "haan": 1211,
      "mi": 1212,
      "ramani": 1213,
      "Pand": 1214,
      "dhi": 1215,
      "ga": 1216,
      "ita": 1217,
      "Do": 1218,
      "hana": 1219,
      "Bas": 1220,
      "Dh": 1221,
      "vas": 1222,
      "war": 1223,
      "tika": 1224,
      "tesh": 1225,
      "nivas": 1226,
      "Bhav": 1227,
      "Dube": 1228,
      "Srinivas": 1229,
      "Fal": 1230,
      "Nar": 1231,
      "arth": 1232,
      "Ro": 1233,
      "ans": 1234,
      "ick": 1235,
      "idhi": 1236,
      "erjee": 1237,
      "araf": 1238,
      "Dara": 1239,
      "Lt": 1240,
      "Nag": 1241,
      "Chakra": 1242,
      "Ltd": 1243,
      "Bah": 1244,
      "Co": 1245,
      "Li": 1246,
      "iya": 1247,
      "hit": 1248,
      "Day": 1249,
      "Son": 1250,
      "Ved": 1251,
      "nagar": 1252,
      "hary": 1253,
      "mer": 1254,
      "ack": 1255,
      "ason": 1256,
      "Ab": 1257,
      "eel": 1258,
      "gal": 1259,
      "opal": 1260,
      "thy": 1261,
      "agopal": 1262,
      "Rajagopal": 1263,
      "Seth": 1264,
      "adhya": 1265,
      "Dar": 1266,
      "hika": 1267,
      "Mall": 1268,
      "Bor": 1269,
      "Ga": 1270,
      "Keer": 1271,
      "gat": 1272,
      "sto": 1273,
      "chal": 1274,
      "Ragha": 1275,
      "shita": 1276,
      "Kap": 1277,
      "wamy": 1278,
      "Sons": 1279,
      "jan": 1280,
      "wan": 1281,
      "aria": 1282,
      "ayar": 1283,
      "Bo": 1284,
      "Dhar": 1285,
      "Far": 1286,
      "Gang": 1287,
      "Ish": 1288,
      "Ur": 1289,
      "bal": 1290,
      "eri": 1291,
      "khal": 1292,
      "nda": 1293,
      "akrishnan": 1294,
      "Dut": 1295,
      "Bad": 1296,
      "Gi": 1297,
      "Pran": 1298,
      "Va": 1299,
      "Group": 1300,
      "Narayan": 1301,
      "Choudh": 1302,
      "Th": 1303,
      "Yu": 1304,
      "rid": 1305,
      "um": 1306,
      "hab": 1307,
      "She": 1308,
      "Buch": 1309,
      "Ben": 1310,
      "Hay": 1311,
      "No": 1312,
      "tti": 1313,
      "ud": 1314,
      "edd": 1315,
      "arika": 1316,
      "Kash": 1317,
      "Desh": 1318,
      "Is": 1319,
      "ena": 1320,
      "urthy": 1321,
      "Chad": 1322,
      "Subramani": 1323,
      "Bala": 1324,
      "Trip": 1325,
      "Madan": 1326,
      "And": 1327,
      "Pilla": 1328,
      "Sach": 1329,
      "ke": 1330,
      "Moh": 1331,
      "Gopal": 1332,
      "Sachdev": 1333,
      "Laksh": 1334,
      "Pur": 1335,
      "PLC": 1336,
      "Sath": 1337,
      "ami": 1338,
      "shil": 1339,
      "aksha": 1340,
      "Prab": 1341,
      "Sankar": 1342,
      "Bh": 1343,
      "Vri": 1344,
      "Ven": 1345,
      "isw": 1346,
      "Karan": 1347,
      "Vasa": 1348,
      "Chakrab": 1349,
      "Ani": 1350,
      "Zach": 1351,
      "tara": 1352,
      "gini": 1353,
      "Chaud": 1354,
      "Advi": 1355,
      "Patla": 1356,
      "Bora": 1357,
      "Iy": 1358,
      "Jha": 1359,
      "Wal": 1360,
      "oor": 1361,
      "shad": 1362,
      "Chai": 1363,
      "karni": 1364,
      "Chandran": 1365,
      "Aarna": 1366,
      "Ojas": 1367,
      "Sand": 1368,
      "hl": 1369,
      "asm": 1370,
      "Dugar": 1371,
      "Heman": 1372,
      "Dal": 1373,
      "rika": 1374,
      "amme": 1375,
      "ghes": 1376,
      "Devan": 1377,
      "Dubey": 1378,
      "ghese": 1379,
      "Gho": 1380,
      "Nathan": 1381,
      "Shi": 1382,
      "Vin": 1383,
      "ish": 1384,
      "mb": 1385,
      "nta": 1386,
      "hil": 1387,
      "yaan": 1388,
      "asim": 1389,
      "Yada": 1390,
      "Bath": 1391,
      "Daksh": 1392,
      "Gre": 1393,
      "Sid": 1394,
      "der": 1395,
      "pa": 1396,
      "ver": 1397,
      "tin": 1398,
      "tya": 1399,
      "iel": 1400,
      "inha": 1401,
      "Bhatt": 1402,
      "Madha": 1403,
      "Arya": 1404,
      "Abhi": 1405,
      "Grewal": 1406,
      "Gupta": 1407,
      "Jai": 1408,
      "Qu": 1409,
      "Ran": 1410,
      "Tara": 1411,
      "ima": 1412,
      "kha": 1413,
      "ohit": 1414,
      "anya": 1415,
      "Hem": 1416,
      "adhyay": 1417,
      "Giri": 1418,
      "Purohit": 1419,
      "Ik": 1420,
      "Pan": 1421,
      "Wali": 1422,
      "aram": 1423,
      "amini": 1424,
      "dik": 1425,
      "dika": 1426,
      "ura": 1427,
      "Shankar": 1428,
      "Ban": 1429,
      "Bri": 1430,
      "Kata": 1431,
      "Le": 1432,
      "Za": 1433,
      "tra": 1434,
      "thari": 1435,
      "Chat": 1436,
      "Gokhal": 1437,
      "Kothari": 1438,
      "Kumer": 1439,
      "Gokhale": 1440,
      "Kon": 1441,
      "Shar": 1442,
      "Saraf": 1443,
      "Wrid": 1444,
      "gu": 1445,
      "rac": 1446,
      "ntrac": 1447,
      "anvi": 1448,
      "ster": 1449,
      "risha": 1450,
      "Balan": 1451,
      "Master": 1452,
      "Som": 1453,
      "Soman": 1454,
      "Golla": 1455,
      "Mital": 1456,
      "Mitra": 1457,
      "Contrac": 1458,
      "Rajagopalan": 1459,
      "Sathe": 1460,
      "Konda": 1461,
      "Sharma": 1462,
      "Contractor": 1463,
      "Bed": 1464,
      "Je": 1465,
      "Jack": 1466,
      "Mani": 1467,
      "Rau": 1468,
      "ishi": 1469,
      "ji": 1470,
      "pe": 1471,
      "xena": 1472,
      "ida": 1473,
      "achana": 1474,
      "athi": 1475,
      "tala": 1476,
      "Singhal": 1477,
      "Saxena": 1478,
      "Chanda": 1479,
      "Tank": 1480,
      "Kota": 1481,
      "Karpe": 1482,
      "Bhatnagar": 1483,
      "Yasho": 1484,
      "Guha": 1485,
      "Devi": 1486,
      "Gaut": 1487,
      "Warrior": 1488,
      "Arora": 1489,
      "adia": 1490,
      "Kapadia": 1491,
      "Dutta": 1492,
      "Tripathi": 1493,
      "Bedi": 1494,
      "Aa": 1495,
      "Bhar": 1496,
      "Bisw": 1497,
      "Din": 1498,
      "Isha": 1499,
      "La": 1500,
      "Mist": 1501,
      "Neel": 1502,
      "Soni": 1503,
      "mesh": 1504,
      "andran": 1505,
      "Chhab": 1506,
      "Ramach": 1507,
      "Adv": 1508,
      "Barad": 1509,
      "Gola": 1510,
      "Srinivasan": 1511,
      "Biswas": 1512,
      "Mistry": 1513,
      "Chhabra": 1514,
      "Ramachandran": 1515,
      "Bera": 1516,
      "Dee": 1517,
      "Dhal": 1518,
      "Ind": 1519,
      "Men": 1520,
      "Nai": 1521,
      "Redd": 1522,
      "Ti": 1523,
      "Tal": 1524,
      "Tand": 1525,
      "iwal": 1526,
      "nam": 1527,
      "uja": 1528,
      "Chahal": 1529,
      "kaar": 1530,
      "hannan": 1531,
      "Rasto": 1532,
      "More": 1533,
      "Bhagat": 1534,
      "Chandani": 1535,
      "Patel": 1536,
      "Butala": 1537,
      "Dada": 1538,
      "Januja": 1539,
      "Agra": 1540,
      "Yohannan": 1541,
      "Parsa": 1542,
      "Kamdar": 1543,
      "Dhaliwal": 1544,
      "Menon": 1545,
      "Reddy": 1546,
      "Talwar": 1547,
      "Tandon": 1548,
      "Rastogi": 1549,
      "Ay": 1550,
      "Gan": 1551,
      "Jayar": 1552,
      "Kak": 1553,
      "Oak": 1554,
      "Rang": 1555,
      "Rachi": 1556,
      "Samp": 1557,
      "Sah": 1558,
      "Vora": 1559,
      "Xa": 1560,
      "sar": 1561,
      "idya": 1562,
      "andi": 1563,
      "shy": 1564,
      "hota": 1565,
      "vier": 1566,
      "Sahota": 1567,
      "Rama": 1568,
      "Ramanathan": 1569,
      "Koshy": 1570,
      "Harshil": 1571,
      "Uppal": 1572,
      "Gauran": 1573,
      "Pati": 1574,
      "Shah": 1575,
      "Veda": 1576,
      "Vaidya": 1577,
      "Narayanan": 1578,
      "Choudhry": 1579,
      "Ayush": 1580,
      "Jayaraman": 1581,
      "Ranganathan": 1582,
      "Sampath": 1583,
      "Xavier": 1584,
      "Baria": 1585,
      "Gade": 1586,
      "Kor": 1587,
      "Kau": 1588,
      "Lil": 1589,
      "Mahal": 1590,
      "Pari": 1591,
      "Sen": 1592,
      "Vir": 1593,
      "Zay": 1594,
      "ck": 1595,
      "her": 1596,
      "kita": 1597,
      "pand": 1598,
      "sac": 1599,
      "uk": 1600,
      "thra": 1601,
      "Chan": 1602,
      "Cheri": 1603,
      "aum": 1604,
      "yap": 1605,
      "yawa": 1606,
      "haar": 1607,
      "minic": 1608,
      "rah": 1609,
      "Amri": 1610,
      "Luck": 1611,
      "Luthra": 1612,
      "Bali": 1613,
      "Balhaar": 1614,
      "Sule": 1615,
      "Mane": 1616,
      "Sharaf": 1617,
      "Deo": 1618,
      "Dey": 1619,
      "Nikita": 1620,
      "Pall": 1621,
      "Kul": 1622,
      "Ekanta": 1623,
      "arajan": 1624,
      "Dominic": 1625,
      "Nagarajan": 1626,
      "Mallick": 1627,
      "Raghavan": 1628,
      "Badami": 1629,
      "Hayre": 1630,
      "Kashyap": 1631,
      "Deshpand": 1632,
      "Issac": 1633,
      "Lakshmi": 1634,
      "Agrawal": 1635,
      "Kaul": 1636,
      "Lila": 1637,
      "Parikh": 1638,
      "Cherian": 1639,
      "Deshpande": 1640,
      "Ana": 1641,
      "Ahu": 1642,
      "Bat": 1643,
      "Bani": 1644,
      "Gand": 1645,
      "Hal": 1646,
      "Kan": 1647,
      "Kuru": 1648,
      "Kari": 1649,
      "Magar": 1650,
      "Nagar": 1651,
      "Nanda": 1652,
      "On": 1653,
      "Ping": 1654,
      "Ratta": 1655,
      "Sai": 1656,
      "Sagar": 1657,
      "Swamy": 1658,
      "Yas": 1659,
      "eja": 1660,
      "fce": 1661,
      "gam": 1662,
      "isha": 1663,
      "ula": 1664,
      "villa": 1665,
      "nty": 1666,
      "andari": 1667,
      "Rege": 1668,
      "Muni": 1669,
      "hajan": 1670,
      "hanty": 1671,
      "aswamy": 1672,
      "ggi": 1673,
      "Mohanty": 1674,
      "bcc": 1675,
      "Mannan": 1676,
      "Ramakrishnan": 1677,
      "Ramaswamy": 1678,
      "Mahajan": 1679,
      "Anne": 1680,
      "Nigam": 1681,
      "Taneja": 1682,
      "Prashad": 1683,
      "Harini": 1684,
      "Sodhi": 1685,
      "Chada": 1686,
      "Jaggi": 1687,
      "Vig": 1688,
      "Agate": 1689,
      "Chaudhry": 1690,
      "Johal": 1691,
      "gava": 1692,
      "Narula": 1693,
      "Roy": 1694,
      "Sheth": 1695,
      "Bhandari": 1696,
      "Vritti": 1697,
      "Yadavi": 1698,
      "Bhargava": 1699,
      "Kakar": 1700,
      "Patil": 1701,
      "Ahuja": 1702,
      "Batra": 1703,
      "Banik": 1704,
      "Halder": 1705,
      "Kannan": 1706,
      "Kuruvilla": 1707,
      "Pingle": 1708,
      "Yasti": 1709,
      "Ath": 1710,
      "Gard": 1711,
      "Hans": 1712,
      "Ki": 1713,
      "Kho": 1714,
      "Mis": 1715,
      "Priya": 1716,
      "Ratt": 1717,
      "Rud": 1718,
      "Raksha": 1719,
      "Sal": 1720,
      "ava": 1721,
      "cbd": 1722,
      "ebe": 1723,
      "harika": 1724,
      "mol": 1725,
      "od": 1726,
      "sad": 1727,
      "sla": 1728,
      "vel": 1729,
      "reth": 1730,
      "arv": 1731,
      "ill": 1732,
      "ghvi": 1733,
      "dec": 1734,
      "Amb": 1735,
      "Amol": 1736,
      "hani": 1737,
      "aaf": 1738,
      "Balji": 1739,
      "jaj": 1740,
      "Sura": 1741,
      "Raman": 1742,
      "Anmol": 1743,
      "Gour": 1744,
      "Naza": 1745,
      "Natara": 1746,
      "Niharika": 1747,
      "Bajaj": 1748,
      "Krishnam": 1749,
      "Prasad": 1750,
      "Sanghvi": 1751,
      "Sarma": 1752,
      "Ekani": 1753,
      "Loyal": 1754,
      "Thakur": 1755,
      "Pandya": 1756,
      "Raghav": 1757,
      "Subramanian": 1758,
      "Mohini": 1759,
      "Madhavi": 1760,
      "Naik": 1761,
      "Korpal": 1762,
      "Virk": 1763,
      "Atharv": 1764,
      "Garde": 1765,
      "Kibe": 1766,
      "Khosla": 1767,
      "Misra": 1768,
      "Rattan": 1769,
      "Rudra": 1770,
      "Salvi": 1771,
      "Baljiwan": 1772,
      "Nazareth": 1773,
      "Natarajan": 1774,
      "Krishnamurthy": 1775,
      "Ak": 1776,
      "Agg": 1777,
      "Ahl": 1778,
      "Bhal": 1779,
      "Ishita": 1780,
      "Jal": 1781,
      "Khat": 1782,
      "Kade": 1783,
      "Lala": 1784,
      "Nidhi": 1785,
      "Oni": 1786,
      "Qar": 1787,
      "Rev": 1788,
      "Roni": 1789,
      "Sund": 1790,
      "Te": 1791,
      "Tata": 1792,
      "Udar": 1793,
      "Xi": 1794,
      "cy": 1795,
      "cda": 1796,
      "gupta": 1797,
      "hli": 1798,
      "mu": 1799,
      "mdar": 1800,
      "ter": 1801,
      "uwal": 1802,
      "arwal": 1803,
      "ica": 1804,
      "acc": 1805,
      "edf": 1806,
      "incy": 1807,
      "ingra": 1808,
      "Chaa": 1809,
      "nik": 1810,
      "jumdar": 1811,
      "Mander": 1812,
      "hakar": 1813,
      "lati": 1814,
      "Divan": 1815,
      "Divya": 1816,
      "Ray": 1817,
      "Raval": 1818,
      "Ravi": 1819,
      "Balakrishnan": 1820,
      "Mann": 1821,
      "Majumdar": 1822,
      "Samra": 1823,
      "hakrishnan": 1824,
      "Kohli": 1825,
      "Karnik": 1826,
      "Yashica": 1827,
      "Gulati": 1828,
      "Megha": 1829,
      "David": 1830,
      "Mitesh": 1831,
      "Dasgupta": 1832,
      "Mitter": 1833,
      "Grover": 1834,
      "Harita": 1835,
      "uly": 1836,
      "Thaker": 1837,
      "Radhakrishnan": 1838,
      "Basu": 1839,
      "Dhriti": 1840,
      "Dhingra": 1841,
      "Bhavsar": 1842,
      "Falak": 1843,
      "Sethi": 1844,
      "Ganguly": 1845,
      "Ishwar": 1846,
      "Nori": 1847,
      "Andra": 1848,
      "Pillai": 1849,
      "Prabhakar": 1850,
      "Sankaran": 1851,
      "Zacharia": 1852,
      "Dalal": 1853,
      "Quincy": 1854,
      "Sahni": 1855,
      "Gandhi": 1856,
      "Aggarwal": 1857,
      "Ahluwal": 1858,
      "Khatri": 1859,
      "Qarin": 1860,
      "Reva": 1861,
      "Ronith": 1862,
      "Sundaram": 1863,
      "Tejas": 1864,
      "Udarsh": 1865,
      "Xiti": 1866,
      "Chaaya": 1867,
      "Ahluwalia": 1868,
      "Atw": 1869,
      "Agar": 1870,
      "Aza": 1871,
      "Aadi": 1872,
      "Br": 1873,
      "Bob": 1874,
      "Dew": 1875,
      "Fari": 1876,
      "Gay": 1877,
      "Hora": 1878,
      "Khan": 1879,
      "Nand": 1880,
      "Nayar": 1881,
      "Pai": 1882,
      "Peri": 1883,
      "Qasim": 1884,
      "Si": 1885,
      "Siya": 1886,
      "Sinha": 1887,
      "Tar": 1888,
      "Wason": 1889,
      "ase": 1890,
      "kshi": 1891,
      "pika": 1892,
      "pher": 1893,
      "si": 1894,
      "idu": 1895,
      "risto": 1896,
      "stava": 1897,
      "amika": 1898,
      "taraman": 1899,
      "Chana": 1900,
      "Chatt": 1901,
      "Christo": 1902,
      "ghyawa": 1903,
      "taly": 1904,
      "Manda": 1905,
      "kataraman": 1906,
      "Diya": 1907,
      "abf": 1908,
      "Saini": 1909,
      "Dugal": 1910,
      "Sudik": 1911,
      "Mangat": 1912,
      "Max": 1913,
      "Anamika": 1914,
      "Naidu": 1915,
      "Yatin": 1916,
      "Shuk": 1917,
      "vastava": 1918,
      "Deol": 1919,
      "athri": 1920,
      "Bawa": 1921,
      "Baghyawa": 1922,
      "Sami": 1923,
      "Sangha": 1924,
      "Chauhan": 1925,
      "Chokshi": 1926,
      "Sood": 1927,
      "Varghese": 1928,
      "Srivastava": 1929,
      "Gole": 1930,
      "Yogi": 1931,
      "Jagat": 1932,
      "Harish": 1933,
      "Lall": 1934,
      "Chaudhari": 1935,
      "Pandit": 1936,
      "Nagi": 1937,
      "Lipika": 1938,
      "Bose": 1939,
      "Boase": 1940,
      "Chadha": 1941,
      "Venkataraman": 1942,
      "Chaitaly": 1943,
      "Aarnav": 1944,
      "Hemangini": 1945,
      "Ghose": 1946,
      "Amrita": 1947,
      "Atwal": 1948,
      "Agarwal": 1949,
      "Azaan": 1950,
      "Brar": 1951,
      "Bobal": 1952,
      "Fariq": 1953,
      "Gayathri": 1954,
      "Khanna": 1955,
      "Tarak": 1956,
      "Chatterjee": 1957,
      "Christopher": 1958,
      "Sudiksha": 1959,
      "Shukla": 1960,
      "Baghyawati": 1961,
      "Ati": 1962,
      "Aay": 1963,
      "Ayaan": 1964,
      "Bandi": 1965,
      "Date": 1966,
      "Dha": 1967,
      "Dyal": 1968,
      "Datta": 1969,
      "Darika": 1970,
      "Dhil": 1971,
      "Eta": 1972,
      "Hen": 1973,
      "Hriti": 1974,
      "Kai": 1975,
      "Kanda": 1976,
      "Lab": 1977,
      "Nad": 1978,
      "Nath": 1979,
      "Net": 1980,
      "Qadi": 1981,
      "Swam": 1982,
      "Sachi": 1983,
      "Vo": 1984,
      "Vyan": 1985,
      "Yat": 1986,
      "dba": 1987,
      "eo": 1988,
      "hne": 1989,
      "hra": 1990,
      "jit": 1991,
      "jana": 1992,
      "lon": 1993,
      "may": 1994,
      "nbir": 1995,
      "pra": 1996,
      "tty": 1997,
      "vraj": 1998,
      "whne": 1999,
      "cob": 2000,
      "stan": 2001,
      "aling": 2002,
      "inathan": 2003,
      "orty": 2004,
      "neet": 2005,
      "urjit": 2006,
      "adurjit": 2007,
      "dore": 2008,
      "ruta": 2009,
      "yak": 2010,
      "radhar": 2011,
      "raf": 2012,
      "ravya": 2013,
      "aki": 2014,
      "akha": 2015,
      "Amruta": 2016,
      "kash": 2017,
      "Sawhne": 2018,
      "Bhavani": 2019,
      "dhara": 2020,
      "dharth": 2021,
      "Anand": 2022,
      "Goyal": 2023,
      "Nayak": 2024,
      "Shravya": 2025,
      "Chander": 2026,
      "Bail": 2027,
      "Krishnan": 2028,
      "Sem": 2029,
      "Setty": 2030,
      "Tanveer": 2031,
      "Tanmay": 2032,
      "Prakash": 2033,
      "Sanya": 2034,
      "Saran": 2035,
      "Sarin": 2036,
      "Sarraf": 2037,
      "Ekaling": 2038,
      "Adya": 2039,
      "Varty": 2040,
      "Varma": 2041,
      "Gunbir": 2042,
      "Guneet": 2043,
      "Tristan": 2044,
      "Chakradhar": 2045,
      "Janaki": 2046,
      "Vasud": 2047
    },
    "merges": [
      [
        "\"",
        ":"
      ],
      [
        "\"",
        ","
      ],
      [
        "n",
        "t"
      ],
      [
        "t",
        "i"
      ],
      [
        "a",
        "n"
      ],
      [
        "o",
        "n"
      ],
      [
        "r",
        "e"
      ],
      [
        "m",
        "e"
      ],
      [
        "e",
        "v"
      ],
      [
        "a",
        "r"
      ],
      [
        "i",
        "c"
      ],
      [
        "i",
        "d"
      ],
      [
        "ti",
        "on"
      ],
      [
        "c",
        "o"
      ],
      [
        "t",
        "y"
      ],
      [
        "r",
        "i"
      ],
      [
        "u",
        "nt"
      ],
      [
        "s",
        "t"
      ],
      [
        "a",
        "c"
      ],
      [
        "e",
        "d"
      ],
      [
        "c",
        "i"
      ],
      [
        "e",
        "n"
      ],
      [
        "a",
        "m"
      ],
      [
        "i",
        "e"
      ],
      [
        "]",
        ","
      ],
      [
        "_",
        "id"
      ],
      [
        "{",
        "\""
      ],
      [
        "ty",
        "p"
      ],
      [
        "g",
        "e"
      ],
      [
        "e",
        "r"
      ],
      [
        "a",
        "l"
      ],
      [
        "r",
        "an"
      ],
      [
        "p",
        "ie"
      ],
      [
        "ci",
        "pie"
      ],
      [
        "cipie",
        "nt"
      ],
      [
        "re",
        "cipient"
      ],
      [
        "i",
        "n"
      ],
      [
        "d",
        "ev"
      ],
      [
        "t",
        "x"
      ],
      [
        "<",
        "|"
      ],
      [
        "t",
        "_"
      ],
      [
        "|",
        ">"
      ],
      [
        "o",
        "r"
      ],
      [
        "ic",
        "e"
      ],
      [
        "dev",
        "ice"
      ],
      [
        "l",
        "o"
      ],
      [
        "ac",
        "tion"
      ],
      [
        "A",
        "C"
      ],
      [
        "AC",
        "C"
      ],
      [
        "o",
        "unt"
      ],
      [
        "E",
        "V"
      ],
      [
        "am",
        "ount"
      ],
      [
        "co",
        "unt"
      ],
      [
        "[",
        "\""
      ],
      [
        "e",
        "l"
      ],
      [
        "\"",
        "}"
      ],
      [
        "D",
        "EV"
      ],
      [
        "_",
        "typ"
      ],
      [
        "c",
        "e"
      ],
      [
        "I",
        "N"
      ],
      [
        "ran",
        "s"
      ],
      [
        "o",
        "me"
      ],
      [
        "p",
        "ri"
      ],
      [
        "m",
        "ar"
      ],
      [
        "t",
        "rans"
      ],
      [
        "b",
        "a"
      ],
      [
        "pri",
        "mar"
      ],
      [
        "primar",
        "y"
      ],
      [
        "a",
        "tion"
      ],
      [
        "E",
        "R"
      ],
      [
        "trans",
        "action"
      ],
      [
        "c",
        "u"
      ],
      [
        "c",
        "ation"
      ],
      [
        "lo",
        "cation"
      ],
      [
        "e",
        "x"
      ],
      [
        "_",
        "ev"
      ],
      [
        "id",
        "en"
      ],
      [
        "ed",
        "_"
      ],
      [
        "_ev",
        "iden"
      ],
      [
        "_eviden",
        "ce"
      ],
      [
        "n",
        "g"
      ],
      [
        "\"",
        "],"
      ],
      [
        "am",
        "p"
      ],
      [
        "ar",
        "t"
      ],
      [
        "t",
        "ar"
      ],
      [
        "T",
        "X"
      ],
      [
        "ti",
        "me"
      ],
      [
        "st",
        "amp"
      ],
      [
        "recipient",
        "_typ"
      ],
      [
        "tx",
        "_id"
      ],
      [
        "device",
        "_id"
      ],
      [
        "time",
        "stamp"
      ],
      [
        "recipient_typ",
        "e"
      ],
      [
        "transaction",
        "s"
      ],
      [
        "en",
        "d"
      ],
      [
        "_",
        "tx"
      ],
      [
        "k",
        "_"
      ],
      [
        "nt",
        "ex"
      ],
      [
        "ic",
        "al"
      ],
      [
        "co",
        "ntex"
      ],
      [
        "st",
        "art"
      ],
      [
        "ac",
        "count"
      ],
      [
        "typ",
        "ical"
      ],
      [
        "ge",
        "t_"
      ],
      [
        "|>",
        "{\""
      ],
      [
        "tar",
        "get_"
      ],
      [
        "_tx",
        "_"
      ],
      [
        "contex",
        "t_"
      ],
      [
        "o",
        "l"
      ],
      [
        "a",
        "t"
      ],
      [
        "an",
        "d"
      ],
      [
        "p",
        "or"
      ],
      [
        "O",
        "N"
      ],
      [
        "d",
        "i"
      ],
      [
        "ri",
        "s"
      ],
      [
        "in",
        "e"
      ],
      [
        "n",
        "a"
      ],
      [
        "d",
        "a"
      ],
      [
        "n",
        "e"
      ],
      [
        "s",
        "el"
      ],
      [
        "ba",
        "sel"
      ],
      [
        "basel",
        "ine"
      ],
      [
        "t",
        "h"
      ],
      [
        "D",
        "I"
      ],
      [
        "ci",
        "ty"
      ],
      [
        "st",
        "ome"
      ],
      [
        "stome",
        "r"
      ],
      [
        "ran",
        "ge"
      ],
      [
        "da",
        "y"
      ],
      [
        "n",
        "d"
      ],
      [
        "M",
        "E"
      ],
      [
        "A",
        "R"
      ],
      [
        "ti",
        "ng"
      ],
      [
        "re",
        "co"
      ],
      [
        "por",
        "ting"
      ],
      [
        "h",
        "ome"
      ],
      [
        "me",
        "di"
      ],
      [
        "er",
        "_evidence"
      ],
      [
        "count",
        "er_evidence"
      ],
      [
        "cu",
        "stomer"
      ],
      [
        "medi",
        "an"
      ],
      [
        "s",
        "h"
      ],
      [
        "P",
        "O"
      ],
      [
        "[",
        "],"
      ],
      [
        "u",
        "r"
      ],
      [
        "c",
        "h"
      ],
      [
        "u",
        "p"
      ],
      [
        "ME",
        "DI"
      ],
      [
        "E",
        "N"
      ],
      [
        "\"}",
        ","
      ],
      [
        "t",
        "w"
      ],
      [
        "g",
        "y"
      ],
      [
        "m",
        "me"
      ],
      [
        "\"",
        "]"
      ],
      [
        ".",
        "\"]"
      ],
      [
        "[",
        "{\""
      ],
      [
        "_",
        "device"
      ],
      [
        "_",
        "na"
      ],
      [
        "_",
        "baseline"
      ],
      [
        "_",
        "city"
      ],
      [
        "_",
        "range"
      ],
      [
        "_",
        "day"
      ],
      [
        "l",
        "ev"
      ],
      [
        "o",
        "lo"
      ],
      [
        "p",
        "er"
      ],
      [
        "p",
        "ol"
      ],
      [
        "s",
        "up"
      ],
      [
        "t",
        "ri"
      ],
      [
        "}",
        ","
      ],
      [
        "}",
        "<|"
      ],
      [
        "re",
        "tri"
      ],
      [
        "ev",
        "ed_"
      ],
      [
        "ic",
        "ie"
      ],
      [
        "ed",
        "ge"
      ],
      [
        "|>",
        "<|"
      ],
      [
        "or",
        "k_"
      ],
      [
        "\"}",
        "],"
      ],
      [
        "\"}",
        "<|"
      ],
      [
        "_typ",
        "olo"
      ],
      [
        "primary",
        "_device"
      ],
      [
        "primary",
        "_typolo"
      ],
      [
        "ed_",
        "action"
      ],
      [
        "k_",
        "lev"
      ],
      [
        "account",
        "_id"
      ],
      [
        "account",
        "_baseline"
      ],
      [
        "typical",
        "_tx_"
      ],
      [
        "typical",
        "_range"
      ],
      [
        "target_",
        "end"
      ],
      [
        "target_",
        "start"
      ],
      [
        "_tx_",
        "amount"
      ],
      [
        "context_",
        "end"
      ],
      [
        "context_",
        "start"
      ],
      [
        "ris",
        "k_lev"
      ],
      [
        "ne",
        "tw"
      ],
      [
        "nd",
        "ed_action"
      ],
      [
        "reco",
        "mme"
      ],
      [
        "porting",
        "_evidence"
      ],
      [
        "home",
        "_city"
      ],
      [
        "customer",
        "_na"
      ],
      [
        "median",
        "_tx_amount"
      ],
      [
        "PO",
        "L"
      ],
      [
        ".\"]",
        "}<|"
      ],
      [
        "per",
        "_day"
      ],
      [
        "pol",
        "icie"
      ],
      [
        "sup",
        "porting_evidence"
      ],
      [
        "retri",
        "eved_"
      ],
      [
        "edge",
        "s"
      ],
      [
        "ork_",
        "edges"
      ],
      [
        "primary_typolo",
        "gy"
      ],
      [
        "typical_tx_",
        "per_day"
      ],
      [
        "risk_lev",
        "el"
      ],
      [
        "netw",
        "ork_edges"
      ],
      [
        "recomme",
        "nded_action"
      ],
      [
        "customer_na",
        "me"
      ],
      [
        "policie",
        "s"
      ],
      [
        "retrieved_",
        "policies"
      ],
      [
        "t",
        "o"
      ],
      [
        "T",
        "I"
      ],
      [
        "h",
        "i"
      ],
      [
        "A",
        "N"
      ],
      [
        "S",
        "E"
      ],
      [
        "ri",
        "ng"
      ],
      [
        "P",
        "ER"
      ],
      [
        "S",
        "ON"
      ],
      [
        "PER",
        "SON"
      ],
      [
        "in",
        "g"
      ],
      [
        "-",
        ">"
      ],
      [
        "N",
        "SE"
      ],
      [
        "T",
        "ER"
      ],
      [
        "U",
        "NSE"
      ],
      [
        "IN",
        "TER"
      ],
      [
        "AR",
        "Y"
      ],
      [
        "MEDI",
        "ARY"
      ],
      [
        "UNSE",
        "EN"
      ],
      [
        "INTER",
        "MEDIARY"
      ],
      [
        "IN",
        "R"
      ],
      [
        "i",
        "s"
      ],
      [
        "at",
        "e"
      ],
      [
        "A",
        "M"
      ],
      [
        "re",
        "sh"
      ],
      [
        "ol",
        "d"
      ],
      [
        "th",
        "resh"
      ],
      [
        "thresh",
        "old"
      ],
      [
        "v",
        "al"
      ],
      [
        "ar",
        "d"
      ],
      [
        "S",
        "t"
      ],
      [
        "and",
        "ard"
      ],
      [
        "St",
        "andard"
      ],
      [
        "t",
        "ed"
      ],
      [
        "t",
        "e"
      ],
      [
        "C",
        "h"
      ],
      [
        "w",
        "i"
      ],
      [
        "n",
        "i"
      ],
      [
        "v",
        "e"
      ],
      [
        "e",
        "cu"
      ],
      [
        "r",
        "o"
      ],
      [
        "or",
        "y"
      ],
      [
        "ch",
        "a"
      ],
      [
        "g",
        "ni"
      ],
      [
        "z",
        "ed"
      ],
      [
        "AM",
        "L"
      ],
      [
        "gni",
        "zed"
      ],
      [
        "L",
        "E"
      ],
      [
        "wi",
        "th"
      ],
      [
        "j",
        "u"
      ],
      [
        "a",
        "d"
      ],
      [
        "A",
        "L"
      ],
      [
        "d",
        "ic"
      ],
      [
        "ris",
        "dic"
      ],
      [
        "ju",
        "risdic"
      ],
      [
        "jurisdic",
        "tion"
      ],
      [
        "en",
        "g"
      ],
      [
        "R",
        "e"
      ],
      [
        "nt",
        "er"
      ],
      [
        "i",
        "l"
      ],
      [
        "I",
        "G"
      ],
      [
        "nt",
        "i"
      ],
      [
        "M",
        "u"
      ],
      [
        "V",
        "ER"
      ],
      [
        "nti",
        "ty"
      ],
      [
        "L",
        "O"
      ],
      [
        "LO",
        "W"
      ],
      [
        "i",
        "nter"
      ],
      [
        "TI",
        "ON"
      ],
      [
        "en",
        "na"
      ],
      [
        "Ch",
        "enna"
      ],
      [
        "Chenna",
        "i"
      ],
      [
        "ur",
        "u"
      ],
      [
        "P",
        "u"
      ],
      [
        "m",
        "ba"
      ],
      [
        "B",
        "eng"
      ],
      [
        "al",
        "uru"
      ],
      [
        "Beng",
        "aluru"
      ],
      [
        "Mu",
        "mba"
      ],
      [
        "Mumba",
        "i"
      ],
      [
        "Pu",
        "ne"
      ],
      [
        "er",
        "a"
      ],
      [
        "ba",
        "d"
      ],
      [
        "a",
        "u"
      ],
      [
        "H",
        "y"
      ],
      [
        "d",
        "era"
      ],
      [
        "Hy",
        "dera"
      ],
      [
        "Hydera",
        "bad"
      ],
      [
        "D",
        "el"
      ],
      [
        "Del",
        "hi"
      ],
      [
        "h",
        "o"
      ],
      [
        "g",
        "h"
      ],
      [
        "U",
        "R"
      ],
      [
        "IN",
        "G"
      ],
      [
        "ecu",
        "tion"
      ],
      [
        "on",
        "i"
      ],
      [
        "A",
        "l"
      ],
      [
        "H",
        "IG"
      ],
      [
        "I",
        "E"
      ],
      [
        "HIG",
        "H"
      ],
      [
        "c",
        "on"
      ],
      [
        "o",
        "b"
      ],
      [
        "M",
        "er"
      ],
      [
        "cha",
        "nt"
      ],
      [
        "Mer",
        "chant"
      ],
      [
        "d",
        "o"
      ],
      [
        "i",
        "st"
      ],
      [
        "v",
        "ed"
      ],
      [
        "I",
        "F"
      ],
      [
        "e",
        "ntity"
      ],
      [
        "f",
        "ro"
      ],
      [
        "g",
        "ory"
      ],
      [
        "u",
        "e"
      ],
      [
        "me",
        "nt"
      ],
      [
        "cu",
        "ment"
      ],
      [
        "di",
        "ted"
      ],
      [
        "ate",
        "gory"
      ],
      [
        "val",
        "ue"
      ],
      [
        "VER",
        "IF"
      ],
      [
        "au",
        "dited"
      ],
      [
        "do",
        "cument"
      ],
      [
        "fro",
        "m"
      ],
      [
        "Al",
        "l"
      ],
      [
        "C",
        "LE"
      ],
      [
        "N",
        "ON"
      ],
      [
        "m",
        "por"
      ],
      [
        "m",
        "oni"
      ],
      [
        "s",
        "er"
      ],
      [
        "co",
        "gnized"
      ],
      [
        "ge",
        "o"
      ],
      [
        "to",
        "ring"
      ],
      [
        "val",
        "s"
      ],
      [
        "te",
        "mpor"
      ],
      [
        "with",
        "in"
      ],
      [
        "Re",
        "cognized"
      ],
      [
        "inter",
        "vals"
      ],
      [
        "ob",
        "ser"
      ],
      [
        "CLE",
        "AR"
      ],
      [
        "NON",
        "E"
      ],
      [
        "moni",
        "toring"
      ],
      [
        "tempor",
        "al"
      ],
      [
        "obser",
        "ved"
      ],
      [
        "L",
        "A"
      ],
      [
        "at",
        "ch"
      ],
      [
        "e",
        "s"
      ],
      [
        "r",
        "u"
      ],
      [
        "C",
        "u"
      ],
      [
        "S",
        "M"
      ],
      [
        "V",
        "E"
      ],
      [
        "con",
        "s"
      ],
      [
        "c",
        "t"
      ],
      [
        "A",
        "T"
      ],
      [
        "O",
        "R"
      ],
      [
        "Y",
        "_"
      ],
      [
        "m",
        "atch"
      ],
      [
        "ist",
        "e"
      ],
      [
        "IN",
        "DI"
      ],
      [
        "A",
        "TION"
      ],
      [
        "_",
        "V"
      ],
      [
        "S",
        "AN"
      ],
      [
        "SAN",
        "C"
      ],
      [
        "b",
        "e"
      ],
      [
        "f",
        "f"
      ],
      [
        "C",
        "U"
      ],
      [
        "er",
        "s"
      ],
      [
        "v",
        "an"
      ],
      [
        "p",
        "ur"
      ],
      [
        "t",
        "al"
      ],
      [
        "y",
        "a"
      ],
      [
        "l",
        "e"
      ],
      [
        "M",
        "and"
      ],
      [
        "b",
        "i"
      ],
      [
        "u",
        "nd"
      ],
      [
        "h",
        "a"
      ],
      [
        "s",
        "e"
      ],
      [
        "U",
        "n"
      ],
      [
        "m",
        "in"
      ],
      [
        "S",
        "ing"
      ],
      [
        "L",
        "C"
      ],
      [
        "und",
        "er"
      ],
      [
        "g",
        "in"
      ],
      [
        "H",
        "i"
      ],
      [
        "r",
        "ad"
      ],
      [
        ")",
        "\"],"
      ],
      [
        "C",
        "T"
      ],
      [
        "E",
        "x"
      ],
      [
        "F",
        "ING"
      ],
      [
        "G",
        "AT"
      ],
      [
        "R",
        "U"
      ],
      [
        "R",
        "EV"
      ],
      [
        "S",
        "T"
      ],
      [
        "S",
        "TI"
      ],
      [
        "_",
        "SM"
      ],
      [
        "_",
        "REV"
      ],
      [
        "f",
        "ers"
      ],
      [
        "o",
        "ff"
      ],
      [
        "u",
        "ring"
      ],
      [
        "u",
        "te"
      ],
      [
        "ti",
        "ve"
      ],
      [
        "re",
        "porting"
      ],
      [
        "st",
        "ru"
      ],
      [
        "device",
        "s"
      ],
      [
        "lo",
        "w"
      ],
      [
        "lo",
        "city"
      ],
      [
        "ce",
        "il"
      ],
      [
        "IN",
        "VE"
      ],
      [
        "trans",
        "fers"
      ],
      [
        "ex",
        "ecution"
      ],
      [
        "at",
        "ory"
      ],
      [
        "reco",
        "gnized"
      ],
      [
        "ur",
        "s"
      ],
      [
        "to",
        "tal"
      ],
      [
        "ve",
        "ring"
      ],
      [
        "ve",
        "locity"
      ],
      [
        "ecu",
        "tive"
      ],
      [
        "ho",
        "urs"
      ],
      [
        "ho",
        "vering"
      ],
      [
        "UR",
        "ING"
      ],
      [
        "UR",
        "FING"
      ],
      [
        "IE",
        "W"
      ],
      [
        "cons",
        "ecutive"
      ],
      [
        "ct",
        "uring"
      ],
      [
        "OR",
        "_REV"
      ],
      [
        "be",
        "low"
      ],
      [
        "Mand",
        "atory"
      ],
      [
        "Un",
        "recognized"
      ],
      [
        "min",
        "ute"
      ],
      [
        "CT",
        "URING"
      ],
      [
        "Ex",
        "ecution"
      ],
      [
        "GAT",
        "OR_REV"
      ],
      [
        "RU",
        "CTURING"
      ],
      [
        "ST",
        "RUCTURING"
      ],
      [
        "STI",
        "GATOR_REV"
      ],
      [
        "_SM",
        "URFING"
      ],
      [
        "stru",
        "cturing"
      ],
      [
        "ceil",
        "ing"
      ],
      [
        "INVE",
        "STIGATOR_REV"
      ],
      [
        "total",
        "ing"
      ],
      [
        "minute",
        "s"
      ],
      [
        "STRUCTURING",
        "_SMURFING"
      ],
      [
        "INVESTIGATOR_REV",
        "IEW"
      ],
      [
        "re",
        "d"
      ],
      [
        "ri",
        "or"
      ],
      [
        "v",
        "ie"
      ],
      [
        "o",
        "ti"
      ],
      [
        "O",
        "ri"
      ],
      [
        "L",
        "LC"
      ],
      [
        "A",
        "B"
      ],
      [
        "C",
        "H"
      ],
      [
        "C",
        "ategory"
      ],
      [
        "D",
        "O"
      ],
      [
        "E",
        "X"
      ],
      [
        "M",
        "ER"
      ],
      [
        "N",
        "T"
      ],
      [
        "O",
        "M"
      ],
      [
        "P",
        "LA"
      ],
      [
        "P",
        "rior"
      ],
      [
        "T",
        "_"
      ],
      [
        "U",
        "E"
      ],
      [
        "U",
        "M"
      ],
      [
        "_",
        "HIGH"
      ],
      [
        "c",
        "ategory"
      ],
      [
        "f",
        "or"
      ],
      [
        "f",
        "il"
      ],
      [
        "g",
        "iste"
      ],
      [
        "i",
        "tion"
      ],
      [
        "i",
        "ate"
      ],
      [
        "n",
        "oti"
      ],
      [
        "q",
        "u"
      ],
      [
        "r",
        "por"
      ],
      [
        "re",
        "vie"
      ],
      [
        "re",
        "giste"
      ],
      [
        "co",
        "rpor"
      ],
      [
        "ac",
        "qu"
      ],
      [
        "dev",
        "iate"
      ],
      [
        "IN",
        "AB"
      ],
      [
        "ed_",
        "counter_evidence"
      ],
      [
        "at",
        "ed"
      ],
      [
        "ME",
        "NT"
      ],
      [
        "MEDI",
        "UM"
      ],
      [
        "hi",
        "gh"
      ],
      [
        "AN",
        "OM"
      ],
      [
        "AN",
        "T_"
      ],
      [
        "is",
        "ition"
      ],
      [
        "threshold",
        "s"
      ],
      [
        "cha",
        "se"
      ],
      [
        "LE",
        "_HIGH"
      ],
      [
        "ad",
        "van"
      ],
      [
        "AL",
        "UE"
      ],
      [
        "IE",
        "D"
      ],
      [
        "VERIF",
        "Y_"
      ],
      [
        "VERIF",
        "IED"
      ],
      [
        "document",
        "ation"
      ],
      [
        "document",
        "ed_counter_evidence"
      ],
      [
        "Cu",
        "stomer"
      ],
      [
        "match",
        "es"
      ],
      [
        "_V",
        "ALUE"
      ],
      [
        "CU",
        "MENT"
      ],
      [
        "pur",
        "chase"
      ],
      [
        "Sing",
        "le"
      ],
      [
        "gin",
        "ated"
      ],
      [
        "Hi",
        "gh"
      ],
      [
        "Ori",
        "ginated"
      ],
      [
        "CH",
        "ANT_"
      ],
      [
        "DO",
        "CUMENT"
      ],
      [
        "EX",
        "PLA"
      ],
      [
        "MER",
        "CHANT_"
      ],
      [
        "fil",
        "ed"
      ],
      [
        "noti",
        "ce"
      ],
      [
        "revie",
        "w"
      ],
      [
        "registe",
        "red"
      ],
      [
        "corpor",
        "ate"
      ],
      [
        "acqu",
        "isition"
      ],
      [
        "deviate",
        "s"
      ],
      [
        "INAB",
        "LE_HIGH"
      ],
      [
        "advan",
        "ce"
      ],
      [
        "VERIFY_",
        "DOCUMENT"
      ],
      [
        "EXPLA",
        "INABLE_HIGH"
      ],
      [
        "MERCHANT_",
        "VERIFIED"
      ],
      [
        "VERIFY_DOCUMENT",
        "ATION"
      ],
      [
        "EXPLAINABLE_HIGH",
        "_VALUE"
      ],
      [
        ")",
        "\","
      ],
      [
        "INDI",
        "A"
      ],
      [
        "e",
        "z"
      ],
      [
        "F",
        "re"
      ],
      [
        "I",
        "TI"
      ],
      [
        "k",
        "ed"
      ],
      [
        "l",
        "in"
      ],
      [
        "p",
        "ro"
      ],
      [
        "hi",
        "bi"
      ],
      [
        "jurisdiction",
        "s"
      ],
      [
        "ez",
        "e"
      ],
      [
        "Fre",
        "eze"
      ],
      [
        "lin",
        "ked"
      ],
      [
        "pro",
        "hibi"
      ],
      [
        "prohibi",
        "ted"
      ],
      [
        "C",
        "AL"
      ],
      [
        "T",
        "rad"
      ],
      [
        "Trad",
        "ing"
      ],
      [
        "l",
        "a"
      ],
      [
        "r",
        "a"
      ],
      [
        "t",
        "a"
      ],
      [
        "d",
        "e"
      ],
      [
        "u",
        "b"
      ],
      [
        "a",
        "k"
      ],
      [
        "a",
        "s"
      ],
      [
        "i",
        "r"
      ],
      [
        "S",
        "y"
      ],
      [
        "Sy",
        "ri"
      ],
      [
        "A",
        "m"
      ],
      [
        "k",
        "a"
      ],
      [
        "D",
        "i"
      ],
      [
        "I",
        "ran"
      ],
      [
        "S",
        "ub"
      ],
      [
        "g",
        "g"
      ],
      [
        "h",
        "an"
      ],
      [
        "v",
        "id"
      ],
      [
        "l",
        "es"
      ],
      [
        "in",
        "di"
      ],
      [
        "Syri",
        "a"
      ],
      [
        "s",
        "ol"
      ],
      [
        "to",
        "k"
      ],
      [
        "st",
        "r"
      ],
      [
        "B",
        "EN"
      ],
      [
        "D",
        "U"
      ],
      [
        "E",
        "ntity"
      ],
      [
        "F",
        "AL"
      ],
      [
        "I",
        "S"
      ],
      [
        "I",
        "DU"
      ],
      [
        "N",
        "_"
      ],
      [
        "O",
        "VER"
      ],
      [
        "S",
        "_"
      ],
      [
        "S",
        "ITI"
      ],
      [
        "T",
        "rans"
      ],
      [
        "T",
        "Y_"
      ],
      [
        "V",
        "IDU"
      ],
      [
        "_",
        "PO"
      ],
      [
        "_",
        "PERSON"
      ],
      [
        "b",
        "y"
      ],
      [
        "c",
        "ted"
      ],
      [
        "d",
        "ome"
      ],
      [
        "f",
        "ir"
      ],
      [
        "m",
        "s"
      ],
      [
        "s",
        "ti"
      ],
      [
        "u",
        "tion"
      ],
      [
        "u",
        "al"
      ],
      [
        "z",
        "en"
      ],
      [
        "ti",
        "zen"
      ],
      [
        "re",
        "sol"
      ],
      [
        "st",
        "ring"
      ],
      [
        "ci",
        "tizen"
      ],
      [
        "DI",
        "SM"
      ],
      [
        "EN",
        "TI"
      ],
      [
        "SE",
        "_PO"
      ],
      [
        "te",
        "cted"
      ],
      [
        "AL",
        "_PERSON"
      ],
      [
        "eng",
        "ine"
      ],
      [
        "IG",
        "N_"
      ],
      [
        "con",
        "fir"
      ],
      [
        "LA",
        "P"
      ],
      [
        "ru",
        "les"
      ],
      [
        "cons",
        "iste"
      ],
      [
        "INDI",
        "VIDU"
      ],
      [
        "de",
        "tected"
      ],
      [
        "Am",
        "ount"
      ],
      [
        "Sub",
        "string"
      ],
      [
        "vid",
        "ual"
      ],
      [
        "indi",
        "vidual"
      ],
      [
        "tok",
        "en"
      ],
      [
        "BEN",
        "IGN_"
      ],
      [
        "FAL",
        "SE_PO"
      ],
      [
        "IS",
        "S_"
      ],
      [
        "OVER",
        "LAP"
      ],
      [
        "SITI",
        "VE"
      ],
      [
        "Trans",
        "action"
      ],
      [
        "TY_",
        "OVERLAP"
      ],
      [
        "dome",
        "sti"
      ],
      [
        "resol",
        "ution"
      ],
      [
        "DISM",
        "ISS_"
      ],
      [
        "ENTI",
        "TY_OVERLAP"
      ],
      [
        "confir",
        "ms"
      ],
      [
        "consiste",
        "nt"
      ],
      [
        "INDIVIDU",
        "AL_PERSON"
      ],
      [
        "BENIGN_",
        "ENTITY_OVERLAP"
      ],
      [
        "FALSE_PO",
        "SITIVE"
      ],
      [
        "domesti",
        "c"
      ],
      [
        "DISMISS_",
        "FALSE_POSITIVE"
      ],
      [
        "v",
        "i"
      ],
      [
        "C",
        "R"
      ],
      [
        "D",
        "_"
      ],
      [
        "E",
        "E"
      ],
      [
        "E",
        "S"
      ],
      [
        "E",
        "_"
      ],
      [
        "F",
        "R"
      ],
      [
        "G",
        "AN"
      ],
      [
        "I",
        "O"
      ],
      [
        "I",
        "Z"
      ],
      [
        "S",
        "_V"
      ],
      [
        "Z",
        "E_"
      ],
      [
        "f",
        "la"
      ],
      [
        "l",
        "ist"
      ],
      [
        "n",
        "ation"
      ],
      [
        "w",
        "atch"
      ],
      [
        "re",
        "ct"
      ],
      [
        "re",
        "str"
      ],
      [
        "ic",
        "ted"
      ],
      [
        "AN",
        "D_"
      ],
      [
        "wi",
        "re"
      ],
      [
        "Re",
        "cipient"
      ],
      [
        "inter",
        "nation"
      ],
      [
        "TION",
        "S_V"
      ],
      [
        "LA",
        "TION"
      ],
      [
        "AT",
        "E"
      ],
      [
        "OR",
        "GAN"
      ],
      [
        "SANC",
        "TIONS_V"
      ],
      [
        "ITI",
        "CAL"
      ],
      [
        "CAL",
        "ATE"
      ],
      [
        "Di",
        "rect"
      ],
      [
        "gg",
        "ed"
      ],
      [
        "CR",
        "ITICAL"
      ],
      [
        "EE",
        "ZE_"
      ],
      [
        "ES",
        "CALATE"
      ],
      [
        "FR",
        "EEZE_"
      ],
      [
        "IO",
        "LATION"
      ],
      [
        "IZ",
        "ATION"
      ],
      [
        "fla",
        "gged"
      ],
      [
        "list",
        "s"
      ],
      [
        "watch",
        "lists"
      ],
      [
        "restr",
        "icted"
      ],
      [
        "AND_",
        "ESCALATE"
      ],
      [
        "internation",
        "al"
      ],
      [
        "ORGAN",
        "IZATION"
      ],
      [
        "SANCTIONS_V",
        "IOLATION"
      ],
      [
        "FREEZE_",
        "AND_ESCALATE"
      ],
      [
        "Cu",
        "ba"
      ],
      [
        "R",
        "a"
      ],
      [
        "M",
        "o"
      ],
      [
        "ar",
        "a"
      ],
      [
        "ar",
        "i"
      ],
      [
        "e",
        "e"
      ],
      [
        "a",
        "b"
      ],
      [
        "a",
        "g"
      ],
      [
        "I",
        "A"
      ],
      [
        "R",
        "IA"
      ],
      [
        "S",
        "Y"
      ],
      [
        "SY",
        "RIA"
      ],
      [
        "L",
        "u"
      ],
      [
        "B",
        "A"
      ],
      [
        "CU",
        "BA"
      ],
      [
        "sh",
        "i"
      ],
      [
        "a",
        "h"
      ],
      [
        "a",
        "y"
      ],
      [
        "d",
        "f"
      ],
      [
        "an",
        "i"
      ],
      [
        "I",
        "R"
      ],
      [
        "IR",
        "AN"
      ],
      [
        "b",
        "c"
      ],
      [
        "t",
        "or"
      ],
      [
        "a",
        "a"
      ],
      [
        "a",
        "i"
      ],
      [
        "ur",
        "y"
      ],
      [
        "d",
        "c"
      ],
      [
        "B",
        "al"
      ],
      [
        "E",
        "nter"
      ],
      [
        "s",
        "es"
      ],
      [
        "pri",
        "ses"
      ],
      [
        "Enter",
        "prises"
      ],
      [
        "a",
        "e"
      ],
      [
        "b",
        "d"
      ],
      [
        "e",
        "w"
      ],
      [
        "f",
        "e"
      ],
      [
        "i",
        "ran"
      ],
      [
        "x",
        "ury"
      ],
      [
        "Re",
        "ta"
      ],
      [
        "Lu",
        "xury"
      ],
      [
        "Reta",
        "il"
      ],
      [
        "Mo",
        "tor"
      ],
      [
        "Motor",
        "s"
      ],
      [
        "c",
        "c"
      ],
      [
        "h",
        "ar"
      ],
      [
        "j",
        "a"
      ],
      [
        "ris",
        "h"
      ],
      [
        "f",
        "d"
      ],
      [
        "el",
        "l"
      ],
      [
        "J",
        "ew"
      ],
      [
        "K",
        "a"
      ],
      [
        "ell",
        "ers"
      ],
      [
        "Jew",
        "ellers"
      ],
      [
        "h",
        "al"
      ],
      [
        "m",
        "a"
      ],
      [
        "i",
        "t"
      ],
      [
        "k",
        "ar"
      ],
      [
        "sh",
        "a"
      ],
      [
        "f",
        "c"
      ],
      [
        "S",
        "a"
      ],
      [
        "d",
        "d"
      ],
      [
        "B",
        "ha"
      ],
      [
        "D",
        "u"
      ],
      [
        "S",
        "u"
      ],
      [
        "b",
        "b"
      ],
      [
        "d",
        "h"
      ],
      [
        "e",
        "f"
      ],
      [
        "c",
        "f"
      ],
      [
        "w",
        "al"
      ],
      [
        "b",
        "f"
      ],
      [
        "M",
        "an"
      ],
      [
        "S",
        "ur"
      ],
      [
        "a",
        "f"
      ],
      [
        "in",
        "i"
      ],
      [
        "al",
        "a"
      ],
      [
        "R",
        "am"
      ],
      [
        "M",
        "a"
      ],
      [
        "A",
        "n"
      ],
      [
        "G",
        "o"
      ],
      [
        "N",
        "a"
      ],
      [
        "Y",
        "a"
      ],
      [
        "an",
        "a"
      ],
      [
        "S",
        "h"
      ],
      [
        "n",
        "an"
      ],
      [
        "e",
        "c"
      ],
      [
        "or",
        "a"
      ],
      [
        "h",
        "at"
      ],
      [
        "Ch",
        "and"
      ],
      [
        "e",
        "a"
      ],
      [
        "p",
        "al"
      ],
      [
        "v",
        "a"
      ],
      [
        "D",
        "e"
      ],
      [
        "c",
        "a"
      ],
      [
        "m",
        "an"
      ],
      [
        "r",
        "y"
      ],
      [
        "at",
        "h"
      ],
      [
        "N",
        "i"
      ],
      [
        "e",
        "b"
      ],
      [
        "c",
        "d"
      ],
      [
        "at",
        "han"
      ],
      [
        "B",
        "a"
      ],
      [
        "S",
        "am"
      ],
      [
        "ri",
        "ya"
      ],
      [
        "K",
        "rish"
      ],
      [
        "Sur",
        "ya"
      ],
      [
        "Ra",
        "j"
      ],
      [
        "P",
        "al"
      ],
      [
        "S",
        "e"
      ],
      [
        "T",
        "an"
      ],
      [
        "d",
        "b"
      ],
      [
        "P",
        "ra"
      ],
      [
        "l",
        "i"
      ],
      [
        "ak",
        "sh"
      ],
      [
        "S",
        "an"
      ],
      [
        "f",
        "b"
      ],
      [
        "Ch",
        "au"
      ],
      [
        "Ch",
        "o"
      ],
      [
        "ha",
        "k"
      ],
      [
        "K",
        "o"
      ],
      [
        "S",
        "ar"
      ],
      [
        "g",
        "ar"
      ],
      [
        "w",
        "a"
      ],
      [
        "E",
        "k"
      ],
      [
        "y",
        "an"
      ],
      [
        "K",
        "ar"
      ],
      [
        "H",
        "ar"
      ],
      [
        "B",
        "hat"
      ],
      [
        "S",
        "o"
      ],
      [
        "A",
        "d"
      ],
      [
        "P",
        "at"
      ],
      [
        "c",
        "b"
      ],
      [
        "ac",
        "h"
      ],
      [
        "K",
        "u"
      ],
      [
        "i",
        "a"
      ],
      [
        "Syri",
        "ac"
      ],
      [
        "V",
        "ar"
      ],
      [
        "U",
        "p"
      ],
      [
        "Ya",
        "sh"
      ],
      [
        "K",
        "ub"
      ],
      [
        "Kub",
        "er"
      ],
      [
        "f",
        "a"
      ],
      [
        "Y",
        "ak"
      ],
      [
        "h",
        "u"
      ],
      [
        "an",
        "g"
      ],
      [
        "Yak",
        "ub"
      ],
      [
        "G",
        "u"
      ],
      [
        "T",
        "ri"
      ],
      [
        "ag",
        "ar"
      ],
      [
        "b",
        "an"
      ],
      [
        "Cu",
        "ban"
      ],
      [
        "D",
        "ev"
      ],
      [
        "H",
        "e"
      ],
      [
        "am",
        "an"
      ],
      [
        "e",
        "t"
      ],
      [
        "Ch",
        "ak"
      ],
      [
        "B",
        "u"
      ],
      [
        "u",
        "sh"
      ],
      [
        "L",
        "o"
      ],
      [
        "S",
        "ri"
      ],
      [
        "gh",
        "a"
      ],
      [
        "M",
        "iran"
      ],
      [
        "Iran",
        "i"
      ],
      [
        "Su",
        "riya"
      ],
      [
        "Miran",
        "a"
      ],
      [
        "M",
        "e"
      ],
      [
        "ad",
        "h"
      ],
      [
        "w",
        "am"
      ],
      [
        "B",
        "ar"
      ],
      [
        "D",
        "a"
      ],
      [
        "e",
        "sh"
      ],
      [
        "k",
        "h"
      ],
      [
        "I",
        "n"
      ],
      [
        "bi",
        "r"
      ],
      [
        "K",
        "iran"
      ],
      [
        "G",
        "au"
      ],
      [
        "W",
        "ar"
      ],
      [
        "at",
        "a"
      ],
      [
        "E",
        "ka"
      ],
      [
        "M",
        "al"
      ],
      [
        "r",
        "am"
      ],
      [
        "Ch",
        "a"
      ],
      [
        "Ch",
        "ar"
      ],
      [
        "O",
        "m"
      ],
      [
        "M",
        "ad"
      ],
      [
        "i",
        "ka"
      ],
      [
        "z",
        "a"
      ],
      [
        "G",
        "ol"
      ],
      [
        "M",
        "i"
      ],
      [
        "J",
        "an"
      ],
      [
        "V",
        "as"
      ],
      [
        "e",
        "er"
      ],
      [
        "i",
        "m"
      ],
      [
        "ri",
        "ti"
      ],
      [
        "al",
        "i"
      ],
      [
        "J",
        "a"
      ],
      [
        "ac",
        "hi"
      ],
      [
        "V",
        "i"
      ],
      [
        "s",
        "a"
      ],
      [
        "ara",
        "j"
      ],
      [
        "S",
        "iran"
      ],
      [
        "at",
        "t"
      ],
      [
        "Siran",
        "i"
      ],
      [
        "A",
        "g"
      ],
      [
        "A",
        "r"
      ],
      [
        "K",
        "ala"
      ],
      [
        "S",
        "han"
      ],
      [
        "Y",
        "o"
      ],
      [
        "j",
        "as"
      ],
      [
        "P",
        "a"
      ],
      [
        "a",
        "di"
      ],
      [
        "v",
        "ya"
      ],
      [
        "up",
        "ta"
      ],
      [
        "A",
        "ar"
      ],
      [
        "D",
        "as"
      ],
      [
        "J",
        "ag"
      ],
      [
        "d",
        "ar"
      ],
      [
        "y",
        "al"
      ],
      [
        "j",
        "ee"
      ],
      [
        "ra",
        "j"
      ],
      [
        "In",
        "c"
      ],
      [
        "M",
        "it"
      ],
      [
        "S",
        "ha"
      ],
      [
        "rish",
        "nan"
      ],
      [
        "G",
        "ro"
      ],
      [
        "ah",
        "al"
      ],
      [
        "N",
        "ara"
      ],
      [
        "il",
        "la"
      ],
      [
        "H",
        "ari"
      ],
      [
        "P",
        "ar"
      ],
      [
        "ad",
        "e"
      ],
      [
        "Cho",
        "u"
      ],
      [
        "K",
        "am"
      ],
      [
        "an",
        "athan"
      ],
      [
        "ve",
        "er"
      ],
      [
        "van",
        "i"
      ],
      [
        "L",
        "al"
      ],
      [
        "g",
        "i"
      ],
      [
        "u",
        "l"
      ],
      [
        "at",
        "ta"
      ],
      [
        "and",
        "a"
      ],
      [
        "ak",
        "shi"
      ],
      [
        "Chau",
        "dh"
      ],
      [
        "T",
        "hak"
      ],
      [
        "Krish",
        "na"
      ],
      [
        "Pal",
        "la"
      ],
      [
        "J",
        "o"
      ],
      [
        "K",
        "al"
      ],
      [
        "L",
        "ad"
      ],
      [
        "R",
        "ad"
      ],
      [
        "W",
        "a"
      ],
      [
        "ha",
        "an"
      ],
      [
        "m",
        "i"
      ],
      [
        "ram",
        "ani"
      ],
      [
        "P",
        "and"
      ],
      [
        "d",
        "hi"
      ],
      [
        "g",
        "a"
      ],
      [
        "i",
        "ta"
      ],
      [
        "D",
        "o"
      ],
      [
        "han",
        "a"
      ],
      [
        "B",
        "as"
      ],
      [
        "D",
        "h"
      ],
      [
        "v",
        "as"
      ],
      [
        "w",
        "ar"
      ],
      [
        "ti",
        "ka"
      ],
      [
        "te",
        "sh"
      ],
      [
        "ni",
        "vas"
      ],
      [
        "Bha",
        "v"
      ],
      [
        "Du",
        "be"
      ],
      [
        "Sri",
        "nivas"
      ],
      [
        "F",
        "al"
      ],
      [
        "N",
        "ar"
      ],
      [
        "art",
        "h"
      ],
      [
        "R",
        "o"
      ],
      [
        "an",
        "s"
      ],
      [
        "ic",
        "k"
      ],
      [
        "id",
        "hi"
      ],
      [
        "er",
        "jee"
      ],
      [
        "ara",
        "f"
      ],
      [
        "D",
        "ara"
      ],
      [
        "L",
        "t"
      ],
      [
        "N",
        "ag"
      ],
      [
        "Chak",
        "ra"
      ],
      [
        "Lt",
        "d"
      ],
      [
        "B",
        "ah"
      ],
      [
        "C",
        "o"
      ],
      [
        "L",
        "i"
      ],
      [
        "i",
        "ya"
      ],
      [
        "hi",
        "t"
      ],
      [
        "D",
        "ay"
      ],
      [
        "S",
        "on"
      ],
      [
        "V",
        "ed"
      ],
      [
        "na",
        "gar"
      ],
      [
        "har",
        "y"
      ],
      [
        "me",
        "r"
      ],
      [
        "ac",
        "k"
      ],
      [
        "as",
        "on"
      ],
      [
        "A",
        "b"
      ],
      [
        "e",
        "el"
      ],
      [
        "g",
        "al"
      ],
      [
        "o",
        "pal"
      ],
      [
        "th",
        "y"
      ],
      [
        "ag",
        "opal"
      ],
      [
        "Raj",
        "agopal"
      ],
      [
        "Se",
        "th"
      ],
      [
        "adh",
        "ya"
      ],
      [
        "D",
        "ar"
      ],
      [
        "hi",
        "ka"
      ],
      [
        "Mal",
        "l"
      ],
      [
        "B",
        "or"
      ],
      [
        "G",
        "a"
      ],
      [
        "K",
        "eer"
      ],
      [
        "g",
        "at"
      ],
      [
        "st",
        "o"
      ],
      [
        "ch",
        "al"
      ],
      [
        "Ra",
        "gha"
      ],
      [
        "shi",
        "ta"
      ],
      [
        "Ka",
        "p"
      ],
      [
        "wam",
        "y"
      ],
      [
        "Son",
        "s"
      ],
      [
        "j",
        "an"
      ],
      [
        "w",
        "an"
      ],
      [
        "ari",
        "a"
      ],
      [
        "ay",
        "ar"
      ],
      [
        "B",
        "o"
      ],
      [
        "D",
        "har"
      ],
      [
        "F",
        "ar"
      ],
      [
        "G",
        "ang"
      ],
      [
        "I",
        "sh"
      ],
      [
        "U",
        "r"
      ],
      [
        "b",
        "al"
      ],
      [
        "e",
        "ri"
      ],
      [
        "k",
        "hal"
      ],
      [
        "n",
        "da"
      ],
      [
        "ak",
        "rishnan"
      ],
      [
        "Du",
        "t"
      ],
      [
        "B",
        "ad"
      ],
      [
        "G",
        "i"
      ],
      [
        "P",
        "ran"
      ],
      [
        "V",
        "a"
      ],
      [
        "Gro",
        "up"
      ],
      [
        "Nara",
        "yan"
      ],
      [
        "Chou",
        "dh"
      ],
      [
        "T",
        "h"
      ],
      [
        "Y",
        "u"
      ],
      [
        "r",
        "id"
      ],
      [
        "u",
        "m"
      ],
      [
        "ha",
        "b"
      ],
      [
        "Sh",
        "e"
      ],
      [
        "Bu",
        "ch"
      ],
      [
        "B",
        "en"
      ],
      [
        "H",
        "ay"
      ],
      [
        "N",
        "o"
      ],
      [
        "t",
        "ti"
      ],
      [
        "u",
        "d"
      ],
      [
        "ed",
        "d"
      ],
      [
        "ari",
        "ka"
      ],
      [
        "Ka",
        "sh"
      ],
      [
        "De",
        "sh"
      ],
      [
        "I",
        "s"
      ],
      [
        "en",
        "a"
      ],
      [
        "ur",
        "thy"
      ],
      [
        "Ch",
        "ad"
      ],
      [
        "Sub",
        "ramani"
      ],
      [
        "Bal",
        "a"
      ],
      [
        "Tri",
        "p"
      ],
      [
        "Mad",
        "an"
      ],
      [
        "A",
        "nd"
      ],
      [
        "P",
        "illa"
      ],
      [
        "S",
        "ach"
      ],
      [
        "k",
        "e"
      ],
      [
        "Mo",
        "h"
      ],
      [
        "Go",
        "pal"
      ],
      [
        "Sach",
        "dev"
      ],
      [
        "L",
        "aksh"
      ],
      [
        "P",
        "ur"
      ],
      [
        "P",
        "LC"
      ],
      [
        "S",
        "ath"
      ],
      [
        "am",
        "i"
      ],
      [
        "sh",
        "il"
      ],
      [
        "ak",
        "sha"
      ],
      [
        "Pra",
        "b"
      ],
      [
        "San",
        "kar"
      ],
      [
        "B",
        "h"
      ],
      [
        "V",
        "ri"
      ],
      [
        "V",
        "en"
      ],
      [
        "is",
        "w"
      ],
      [
        "Kar",
        "an"
      ],
      [
        "Vas",
        "a"
      ],
      [
        "Chakra",
        "b"
      ],
      [
        "A",
        "ni"
      ],
      [
        "Z",
        "ach"
      ],
      [
        "tar",
        "a"
      ],
      [
        "gin",
        "i"
      ],
      [
        "Chau",
        "d"
      ],
      [
        "Ad",
        "vi"
      ],
      [
        "Pat",
        "la"
      ],
      [
        "B",
        "ora"
      ],
      [
        "I",
        "y"
      ],
      [
        "J",
        "ha"
      ],
      [
        "W",
        "al"
      ],
      [
        "o",
        "or"
      ],
      [
        "sh",
        "ad"
      ],
      [
        "Ch",
        "ai"
      ],
      [
        "kar",
        "ni"
      ],
      [
        "Chand",
        "ran"
      ],
      [
        "Aar",
        "na"
      ],
      [
        "O",
        "jas"
      ],
      [
        "S",
        "and"
      ],
      [
        "h",
        "l"
      ],
      [
        "as",
        "m"
      ],
      [
        "Du",
        "gar"
      ],
      [
        "He",
        "man"
      ],
      [
        "D",
        "al"
      ],
      [
        "ri",
        "ka"
      ],
      [
        "am",
        "me"
      ],
      [
        "gh",
        "es"
      ],
      [
        "Dev",
        "an"
      ],
      [
        "Dube",
        "y"
      ],
      [
        "ghes",
        "e"
      ],
      [
        "G",
        "ho"
      ],
      [
        "N",
        "athan"
      ],
      [
        "S",
        "hi"
      ],
      [
        "V",
        "in"
      ],
      [
        "i",
        "sh"
      ],
      [
        "m",
        "b"
      ],
      [
        "nt",
        "a"
      ],
      [
        "hi",
        "l"
      ],
      [
        "ya",
        "an"
      ],
      [
        "as",
        "im"
      ],
      [
        "Ya",
        "da"
      ],
      [
        "B",
        "ath"
      ],
      [
        "D",
        "aksh"
      ],
      [
        "G",
        "re"
      ],
      [
        "S",
        "id"
      ],
      [
        "d",
        "er"
      ],
      [
        "p",
        "a"
      ],
      [
        "v",
        "er"
      ],
      [
        "ti",
        "n"
      ],
      [
        "ty",
        "a"
      ],
      [
        "ie",
        "l"
      ],
      [
        "in",
        "ha"
      ],
      [
        "Bhat",
        "t"
      ],
      [
        "Mad",
        "ha"
      ],
      [
        "Ar",
        "ya"
      ],
      [
        "Ab",
        "hi"
      ],
      [
        "Gre",
        "wal"
      ],
      [
        "G",
        "upta"
      ],
      [
        "J",
        "ai"
      ],
      [
        "Q",
        "u"
      ],
      [
        "R",
        "an"
      ],
      [
        "T",
        "ara"
      ],
      [
        "i",
        "ma"
      ],
      [
        "k",
        "ha"
      ],
      [
        "o",
        "hit"
      ],
      [
        "an",
        "ya"
      ],
      [
        "He",
        "m"
      ],
      [
        "adhya",
        "y"
      ],
      [
        "Gi",
        "ri"
      ],
      [
        "Pur",
        "ohit"
      ],
      [
        "I",
        "k"
      ],
      [
        "P",
        "an"
      ],
      [
        "W",
        "ali"
      ],
      [
        "ar",
        "am"
      ],
      [
        "am",
        "ini"
      ],
      [
        "di",
        "k"
      ],
      [
        "di",
        "ka"
      ],
      [
        "ur",
        "a"
      ],
      [
        "Shan",
        "kar"
      ],
      [
        "B",
        "an"
      ],
      [
        "B",
        "ri"
      ],
      [
        "K",
        "ata"
      ],
      [
        "L",
        "e"
      ],
      [
        "Z",
        "a"
      ],
      [
        "t",
        "ra"
      ],
      [
        "th",
        "ari"
      ],
      [
        "Ch",
        "at"
      ],
      [
        "Go",
        "khal"
      ],
      [
        "Ko",
        "thari"
      ],
      [
        "Ku",
        "mer"
      ],
      [
        "Gokhal",
        "e"
      ],
      [
        "K",
        "on"
      ],
      [
        "S",
        "har"
      ],
      [
        "S",
        "araf"
      ],
      [
        "W",
        "rid"
      ],
      [
        "g",
        "u"
      ],
      [
        "r",
        "ac"
      ],
      [
        "nt",
        "rac"
      ],
      [
        "an",
        "vi"
      ],
      [
        "st",
        "er"
      ],
      [
        "ris",
        "ha"
      ],
      [
        "Bal",
        "an"
      ],
      [
        "Ma",
        "ster"
      ],
      [
        "So",
        "m"
      ],
      [
        "So",
        "man"
      ],
      [
        "Gol",
        "la"
      ],
      [
        "Mi",
        "tal"
      ],
      [
        "Mit",
        "ra"
      ],
      [
        "Co",
        "ntrac"
      ],
      [
        "Rajagopal",
        "an"
      ],
      [
        "Sath",
        "e"
      ],
      [
        "Kon",
        "da"
      ],
      [
        "Shar",
        "ma"
      ],
      [
        "Contrac",
        "tor"
      ],
      [
        "B",
        "ed"
      ],
      [
        "J",
        "e"
      ],
      [
        "J",
        "ack"
      ],
      [
        "M",
        "ani"
      ],
      [
        "R",
        "au"
      ],
      [
        "i",
        "shi"
      ],
      [
        "j",
        "i"
      ],
      [
        "p",
        "e"
      ],
      [
        "x",
        "ena"
      ],
      [
        "id",
        "a"
      ],
      [
        "ac",
        "hana"
      ],
      [
        "at",
        "hi"
      ],
      [
        "tal",
        "a"
      ],
      [
        "Sing",
        "hal"
      ],
      [
        "Sa",
        "xena"
      ],
      [
        "Chand",
        "a"
      ],
      [
        "Tan",
        "k"
      ],
      [
        "Ko",
        "ta"
      ],
      [
        "Kar",
        "pe"
      ],
      [
        "Bhat",
        "nagar"
      ],
      [
        "Yash",
        "o"
      ],
      [
        "Gu",
        "ha"
      ],
      [
        "Dev",
        "i"
      ],
      [
        "Gau",
        "t"
      ],
      [
        "War",
        "rior"
      ],
      [
        "Ar",
        "ora"
      ],
      [
        "adi",
        "a"
      ],
      [
        "Kap",
        "adia"
      ],
      [
        "Dut",
        "ta"
      ],
      [
        "Trip",
        "athi"
      ],
      [
        "Bed",
        "i"
      ],
      [
        "A",
        "a"
      ],
      [
        "B",
        "har"
      ],
      [
        "B",
        "isw"
      ],
      [
        "D",
        "in"
      ],
      [
        "I",
        "sha"
      ],
      [
        "L",
        "a"
      ],
      [
        "M",
        "ist"
      ],
      [
        "N",
        "eel"
      ],
      [
        "S",
        "oni"
      ],
      [
        "me",
        "sh"
      ],
      [
        "and",
        "ran"
      ],
      [
        "Ch",
        "hab"
      ],
      [
        "Ram",
        "ach"
      ],
      [
        "Ad",
        "v"
      ],
      [
        "Bar",
        "ad"
      ],
      [
        "Gol",
        "a"
      ],
      [
        "Srinivas",
        "an"
      ],
      [
        "Bisw",
        "as"
      ],
      [
        "Mist",
        "ry"
      ],
      [
        "Chhab",
        "ra"
      ],
      [
        "Ramach",
        "andran"
      ],
      [
        "B",
        "era"
      ],
      [
        "D",
        "ee"
      ],
      [
        "D",
        "hal"
      ],
      [
        "I",
        "nd"
      ],
      [
        "M",
        "en"
      ],
      [
        "N",
        "ai"
      ],
      [
        "R",
        "edd"
      ],
      [
        "T",
        "i"
      ],
      [
        "T",
        "al"
      ],
      [
        "T",
        "and"
      ],
      [
        "i",
        "wal"
      ],
      [
        "n",
        "am"
      ],
      [
        "u",
        "ja"
      ],
      [
        "Ch",
        "ahal"
      ],
      [
        "ka",
        "ar"
      ],
      [
        "han",
        "nan"
      ],
      [
        "Ra",
        "sto"
      ],
      [
        "Mo",
        "re"
      ],
      [
        "Bha",
        "gat"
      ],
      [
        "Chand",
        "ani"
      ],
      [
        "Pat",
        "el"
      ],
      [
        "Bu",
        "tala"
      ],
      [
        "Da",
        "da"
      ],
      [
        "Jan",
        "uja"
      ],
      [
        "Ag",
        "ra"
      ],
      [
        "Yo",
        "hannan"
      ],
      [
        "Par",
        "sa"
      ],
      [
        "Kam",
        "dar"
      ],
      [
        "Dhal",
        "iwal"
      ],
      [
        "Men",
        "on"
      ],
      [
        "Redd",
        "y"
      ],
      [
        "Tal",
        "war"
      ],
      [
        "Tand",
        "on"
      ],
      [
        "Rasto",
        "gi"
      ],
      [
        "A",
        "y"
      ],
      [
        "G",
        "an"
      ],
      [
        "J",
        "ayar"
      ],
      [
        "K",
        "ak"
      ],
      [
        "O",
        "ak"
      ],
      [
        "R",
        "ang"
      ],
      [
        "R",
        "achi"
      ],
      [
        "S",
        "amp"
      ],
      [
        "S",
        "ah"
      ],
      [
        "V",
        "ora"
      ],
      [
        "X",
        "a"
      ],
      [
        "s",
        "ar"
      ],
      [
        "id",
        "ya"
      ],
      [
        "and",
        "i"
      ],
      [
        "sh",
        "y"
      ],
      [
        "ho",
        "ta"
      ],
      [
        "vie",
        "r"
      ],
      [
        "Sa",
        "hota"
      ],
      [
        "Ram",
        "a"
      ],
      [
        "Ram",
        "anathan"
      ],
      [
        "Ko",
        "shy"
      ],
      [
        "Har",
        "shil"
      ],
      [
        "Up",
        "pal"
      ],
      [
        "Gau",
        "ran"
      ],
      [
        "Pa",
        "ti"
      ],
      [
        "Sha",
        "h"
      ],
      [
        "Ved",
        "a"
      ],
      [
        "Va",
        "idya"
      ],
      [
        "Narayan",
        "an"
      ],
      [
        "Choudh",
        "ry"
      ],
      [
        "Ay",
        "ush"
      ],
      [
        "Jayar",
        "aman"
      ],
      [
        "Rang",
        "anathan"
      ],
      [
        "Samp",
        "ath"
      ],
      [
        "Xa",
        "vier"
      ],
      [
        "B",
        "aria"
      ],
      [
        "G",
        "ade"
      ],
      [
        "K",
        "or"
      ],
      [
        "K",
        "au"
      ],
      [
        "L",
        "il"
      ],
      [
        "M",
        "ahal"
      ],
      [
        "P",
        "ari"
      ],
      [
        "S",
        "en"
      ],
      [
        "V",
        "ir"
      ],
      [
        "Z",
        "ay"
      ],
      [
        "c",
        "k"
      ],
      [
        "h",
        "er"
      ],
      [
        "k",
        "ita"
      ],
      [
        "p",
        "and"
      ],
      [
        "s",
        "ac"
      ],
      [
        "u",
        "k"
      ],
      [
        "th",
        "ra"
      ],
      [
        "Ch",
        "an"
      ],
      [
        "Ch",
        "eri"
      ],
      [
        "au",
        "m"
      ],
      [
        "ya",
        "p"
      ],
      [
        "ya",
        "wa"
      ],
      [
        "ha",
        "ar"
      ],
      [
        "min",
        "ic"
      ],
      [
        "ra",
        "h"
      ],
      [
        "Am",
        "ri"
      ],
      [
        "Lu",
        "ck"
      ],
      [
        "Lu",
        "thra"
      ],
      [
        "Bal",
        "i"
      ],
      [
        "Bal",
        "haar"
      ],
      [
        "Su",
        "le"
      ],
      [
        "Man",
        "e"
      ],
      [
        "Sh",
        "araf"
      ],
      [
        "De",
        "o"
      ],
      [
        "De",
        "y"
      ],
      [
        "Ni",
        "kita"
      ],
      [
        "Pal",
        "l"
      ],
      [
        "Ku",
        "l"
      ],
      [
        "Eka",
        "nta"
      ],
      [
        "araj",
        "an"
      ],
      [
        "Do",
        "minic"
      ],
      [
        "Nag",
        "arajan"
      ],
      [
        "Mall",
        "ick"
      ],
      [
        "Ragha",
        "van"
      ],
      [
        "Bad",
        "ami"
      ],
      [
        "Hay",
        "re"
      ],
      [
        "Kash",
        "yap"
      ],
      [
        "Desh",
        "pand"
      ],
      [
        "Is",
        "sac"
      ],
      [
        "Laksh",
        "mi"
      ],
      [
        "Agra",
        "wal"
      ],
      [
        "Kau",
        "l"
      ],
      [
        "Lil",
        "a"
      ],
      [
        "Pari",
        "kh"
      ],
      [
        "Cheri",
        "an"
      ],
      [
        "Deshpand",
        "e"
      ],
      [
        "A",
        "na"
      ],
      [
        "A",
        "hu"
      ],
      [
        "B",
        "at"
      ],
      [
        "B",
        "ani"
      ],
      [
        "G",
        "and"
      ],
      [
        "H",
        "al"
      ],
      [
        "K",
        "an"
      ],
      [
        "K",
        "uru"
      ],
      [
        "K",
        "ari"
      ],
      [
        "M",
        "agar"
      ],
      [
        "N",
        "agar"
      ],
      [
        "N",
        "anda"
      ],
      [
        "O",
        "n"
      ],
      [
        "P",
        "ing"
      ],
      [
        "R",
        "atta"
      ],
      [
        "S",
        "ai"
      ],
      [
        "S",
        "agar"
      ],
      [
        "S",
        "wamy"
      ],
      [
        "Y",
        "as"
      ],
      [
        "e",
        "ja"
      ],
      [
        "f",
        "ce"
      ],
      [
        "g",
        "am"
      ],
      [
        "i",
        "sha"
      ],
      [
        "u",
        "la"
      ],
      [
        "v",
        "illa"
      ],
      [
        "nt",
        "y"
      ],
      [
        "and",
        "ari"
      ],
      [
        "Re",
        "ge"
      ],
      [
        "Mu",
        "ni"
      ],
      [
        "ha",
        "jan"
      ],
      [
        "ha",
        "nty"
      ],
      [
        "as",
        "wamy"
      ],
      [
        "gg",
        "i"
      ],
      [
        "Mo",
        "hanty"
      ],
      [
        "bc",
        "c"
      ],
      [
        "Man",
        "nan"
      ],
      [
        "Ram",
        "akrishnan"
      ],
      [
        "Ram",
        "aswamy"
      ],
      [
        "Ma",
        "hajan"
      ],
      [
        "An",
        "ne"
      ],
      [
        "Ni",
        "gam"
      ],
      [
        "Tan",
        "eja"
      ],
      [
        "Pra",
        "shad"
      ],
      [
        "Har",
        "ini"
      ],
      [
        "So",
        "dhi"
      ],
      [
        "Cha",
        "da"
      ],
      [
        "Ja",
        "ggi"
      ],
      [
        "Vi",
        "g"
      ],
      [
        "Ag",
        "ate"
      ],
      [
        "Chaudh",
        "ry"
      ],
      [
        "Jo",
        "hal"
      ],
      [
        "ga",
        "va"
      ],
      [
        "Nar",
        "ula"
      ],
      [
        "Ro",
        "y"
      ],
      [
        "She",
        "th"
      ],
      [
        "Bh",
        "andari"
      ],
      [
        "Vri",
        "tti"
      ],
      [
        "Yada",
        "vi"
      ],
      [
        "Bhar",
        "gava"
      ],
      [
        "Kak",
        "ar"
      ],
      [
        "Pati",
        "l"
      ],
      [
        "Ahu",
        "ja"
      ],
      [
        "Bat",
        "ra"
      ],
      [
        "Bani",
        "k"
      ],
      [
        "Hal",
        "der"
      ],
      [
        "Kan",
        "nan"
      ],
      [
        "Kuru",
        "villa"
      ],
      [
        "Ping",
        "le"
      ],
      [
        "Yas",
        "ti"
      ],
      [
        "A",
        "th"
      ],
      [
        "G",
        "ard"
      ],
      [
        "H",
        "ans"
      ],
      [
        "K",
        "i"
      ],
      [
        "K",
        "ho"
      ],
      [
        "M",
        "is"
      ],
      [
        "P",
        "riya"
      ],
      [
        "R",
        "att"
      ],
      [
        "R",
        "ud"
      ],
      [
        "R",
        "aksha"
      ],
      [
        "S",
        "al"
      ],
      [
        "a",
        "va"
      ],
      [
        "c",
        "bd"
      ],
      [
        "e",
        "be"
      ],
      [
        "h",
        "arika"
      ],
      [
        "m",
        "ol"
      ],
      [
        "o",
        "d"
      ],
      [
        "s",
        "ad"
      ],
      [
        "s",
        "la"
      ],
      [
        "v",
        "el"
      ],
      [
        "re",
        "th"
      ],
      [
        "ar",
        "v"
      ],
      [
        "il",
        "l"
      ],
      [
        "gh",
        "vi"
      ],
      [
        "de",
        "c"
      ],
      [
        "Am",
        "b"
      ],
      [
        "Am",
        "ol"
      ],
      [
        "han",
        "i"
      ],
      [
        "aa",
        "f"
      ],
      [
        "Bal",
        "ji"
      ],
      [
        "ja",
        "j"
      ],
      [
        "Sur",
        "a"
      ],
      [
        "Ram",
        "an"
      ],
      [
        "An",
        "mol"
      ],
      [
        "Go",
        "ur"
      ],
      [
        "Na",
        "za"
      ],
      [
        "Na",
        "tara"
      ],
      [
        "Ni",
        "harika"
      ],
      [
        "Ba",
        "jaj"
      ],
      [
        "Krish",
        "nam"
      ],
      [
        "Pra",
        "sad"
      ],
      [
        "San",
        "ghvi"
      ],
      [
        "Sar",
        "ma"
      ],
      [
        "Ek",
        "ani"
      ],
      [
        "Lo",
        "yal"
      ],
      [
        "Thak",
        "ur"
      ],
      [
        "Pand",
        "ya"
      ],
      [
        "Ragha",
        "v"
      ],
      [
        "Subramani",
        "an"
      ],
      [
        "Moh",
        "ini"
      ],
      [
        "Madha",
        "vi"
      ],
      [
        "Nai",
        "k"
      ],
      [
        "Kor",
        "pal"
      ],
      [
        "Vir",
        "k"
      ],
      [
        "Ath",
        "arv"
      ],
      [
        "Gard",
        "e"
      ],
      [
        "Ki",
        "be"
      ],
      [
        "Kho",
        "sla"
      ],
      [
        "Mis",
        "ra"
      ],
      [
        "Ratt",
        "an"
      ],
      [
        "Rud",
        "ra"
      ],
      [
        "Sal",
        "vi"
      ],
      [
        "Balji",
        "wan"
      ],
      [
        "Naza",
        "reth"
      ],
      [
        "Natara",
        "jan"
      ],
      [
        "Krishnam",
        "urthy"
      ],
      [
        "A",
        "k"
      ],
      [
        "A",
        "gg"
      ],
      [
        "A",
        "hl"
      ],
      [
        "B",
        "hal"
      ],
      [
        "I",
        "shita"
      ],
      [
        "J",
        "al"
      ],
      [
        "K",
        "hat"
      ],
      [
        "K",
        "ade"
      ],
      [
        "L",
        "ala"
      ],
      [
        "N",
        "idhi"
      ],
      [
        "O",
        "ni"
      ],
      [
        "Q",
        "ar"
      ],
      [
        "R",
        "ev"
      ],
      [
        "R",
        "oni"
      ],
      [
        "S",
        "und"
      ],
      [
        "T",
        "e"
      ],
      [
        "T",
        "ata"
      ],
      [
        "U",
        "dar"
      ],
      [
        "X",
        "i"
      ],
      [
        "c",
        "y"
      ],
      [
        "c",
        "da"
      ],
      [
        "g",
        "upta"
      ],
      [
        "h",
        "li"
      ],
      [
        "m",
        "u"
      ],
      [
        "m",
        "dar"
      ],
      [
        "t",
        "er"
      ],
      [
        "u",
        "wal"
      ],
      [
        "ar",
        "wal"
      ],
      [
        "ic",
        "a"
      ],
      [
        "ac",
        "c"
      ],
      [
        "ed",
        "f"
      ],
      [
        "in",
        "cy"
      ],
      [
        "ing",
        "ra"
      ],
      [
        "Ch",
        "aa"
      ],
      [
        "ni",
        "k"
      ],
      [
        "ju",
        "mdar"
      ],
      [
        "Mand",
        "er"
      ],
      [
        "ha",
        "kar"
      ],
      [
        "la",
        "ti"
      ],
      [
        "Di",
        "van"
      ],
      [
        "Di",
        "vya"
      ],
      [
        "Ra",
        "y"
      ],
      [
        "Ra",
        "val"
      ],
      [
        "Ra",
        "vi"
      ],
      [
        "Bal",
        "akrishnan"
      ],
      [
        "Man",
        "n"
      ],
      [
        "Ma",
        "jumdar"
      ],
      [
        "Sam",
        "ra"
      ],
      [
        "hak",
        "rishnan"
      ],
      [
        "Ko",
        "hli"
      ],
      [
        "Kar",
        "nik"
      ],
      [
        "Yash",
        "ica"
      ],
      [
        "Gu",
        "lati"
      ],
      [
        "Me",
        "gha"
      ],
      [
        "Da",
        "vid"
      ],
      [
        "Mi",
        "tesh"
      ],
      [
        "Das",
        "gupta"
      ],
      [
        "Mit",
        "ter"
      ],
      [
        "Gro",
        "ver"
      ],
      [
        "Hari",
        "ta"
      ],
      [
        "ul",
        "y"
      ],
      [
        "Thak",
        "er"
      ],
      [
        "Rad",
        "hakrishnan"
      ],
      [
        "Bas",
        "u"
      ],
      [
        "Dh",
        "riti"
      ],
      [
        "Dh",
        "ingra"
      ],
      [
        "Bhav",
        "sar"
      ],
      [
        "Fal",
        "ak"
      ],
      [
        "Seth",
        "i"
      ],
      [
        "Gang",
        "uly"
      ],
      [
        "Ish",
        "war"
      ],
      [
        "No",
        "ri"
      ],
      [
        "And",
        "ra"
      ],
      [
        "Pilla",
        "i"
      ],
      [
        "Prab",
        "hakar"
      ],
      [
        "Sankar",
        "an"
      ],
      [
        "Zach",
        "aria"
      ],
      [
        "Dal",
        "al"
      ],
      [
        "Qu",
        "incy"
      ],
      [
        "Sah",
        "ni"
      ],
      [
        "Gand",
        "hi"
      ],
      [
        "Agg",
        "arwal"
      ],
      [
        "Ahl",
        "uwal"
      ],
      [
        "Khat",
        "ri"
      ],
      [
        "Qar",
        "in"
      ],
      [
        "Rev",
        "a"
      ],
      [
        "Roni",
        "th"
      ],
      [
        "Sund",
        "aram"
      ],
      [
        "Te",
        "jas"
      ],
      [
        "Udar",
        "sh"
      ],
      [
        "Xi",
        "ti"
      ],
      [
        "Chaa",
        "ya"
      ],
      [
        "Ahluwal",
        "ia"
      ],
      [
        "A",
        "tw"
      ],
      [
        "A",
        "gar"
      ],
      [
        "A",
        "za"
      ],
      [
        "A",
        "adi"
      ],
      [
        "B",
        "r"
      ],
      [
        "B",
        "ob"
      ],
      [
        "D",
        "ew"
      ],
      [
        "F",
        "ari"
      ],
      [
        "G",
        "ay"
      ],
      [
        "H",
        "ora"
      ],
      [
        "K",
        "han"
      ],
      [
        "N",
        "and"
      ],
      [
        "N",
        "ayar"
      ],
      [
        "P",
        "ai"
      ],
      [
        "P",
        "eri"
      ],
      [
        "Q",
        "asim"
      ],
      [
        "S",
        "i"
      ],
      [
        "S",
        "iya"
      ],
      [
        "S",
        "inha"
      ],
      [
        "T",
        "ar"
      ],
      [
        "W",
        "ason"
      ],
      [
        "a",
        "se"
      ],
      [
        "k",
        "shi"
      ],
      [
        "p",
        "ika"
      ],
      [
        "p",
        "her"
      ],
      [
        "s",
        "i"
      ],
      [
        "id",
        "u"
      ],
      [
        "ri",
        "sto"
      ],
      [
        "st",
        "ava"
      ],
      [
        "am",
        "ika"
      ],
      [
        "tar",
        "aman"
      ],
      [
        "Ch",
        "ana"
      ],
      [
        "Ch",
        "att"
      ],
      [
        "Ch",
        "risto"
      ],
      [
        "gh",
        "yawa"
      ],
      [
        "tal",
        "y"
      ],
      [
        "Mand",
        "a"
      ],
      [
        "ka",
        "taraman"
      ],
      [
        "Di",
        "ya"
      ],
      [
        "ab",
        "f"
      ],
      [
        "Sa",
        "ini"
      ],
      [
        "Du",
        "gal"
      ],
      [
        "Su",
        "dik"
      ],
      [
        "Man",
        "gat"
      ],
      [
        "Ma",
        "x"
      ],
      [
        "An",
        "amika"
      ],
      [
        "Na",
        "idu"
      ],
      [
        "Ya",
        "tin"
      ],
      [
        "Sh",
        "uk"
      ],
      [
        "va",
        "stava"
      ],
      [
        "De",
        "ol"
      ],
      [
        "ath",
        "ri"
      ],
      [
        "Ba",
        "wa"
      ],
      [
        "Ba",
        "ghyawa"
      ],
      [
        "Sam",
        "i"
      ],
      [
        "San",
        "gha"
      ],
      [
        "Chau",
        "han"
      ],
      [
        "Cho",
        "kshi"
      ],
      [
        "So",
        "od"
      ],
      [
        "Var",
        "ghese"
      ],
      [
        "Sri",
        "vastava"
      ],
      [
        "Gol",
        "e"
      ],
      [
        "Yo",
        "gi"
      ],
      [
        "Jag",
        "at"
      ],
      [
        "Hari",
        "sh"
      ],
      [
        "Lal",
        "l"
      ],
      [
        "Chaudh",
        "ari"
      ],
      [
        "Pand",
        "it"
      ],
      [
        "Nag",
        "i"
      ],
      [
        "Li",
        "pika"
      ],
      [
        "Bo",
        "se"
      ],
      [
        "Bo",
        "ase"
      ],
      [
        "Chad",
        "ha"
      ],
      [
        "Ven",
        "kataraman"
      ],
      [
        "Chai",
        "taly"
      ],
      [
        "Aarna",
        "v"
      ],
      [
        "Heman",
        "gini"
      ],
      [
        "Gho",
        "se"
      ],
      [
        "Amri",
        "ta"
      ],
      [
        "Atw",
        "al"
      ],
      [
        "Agar",
        "wal"
      ],
      [
        "Aza",
        "an"
      ],
      [
        "Br",
        "ar"
      ],
      [
        "Bob",
        "al"
      ],
      [
        "Fari",
        "q"
      ],
      [
        "Gay",
        "athri"
      ],
      [
        "Khan",
        "na"
      ],
      [
        "Tar",
        "ak"
      ],
      [
        "Chatt",
        "erjee"
      ],
      [
        "Christo",
        "pher"
      ],
      [
        "Sudik",
        "sha"
      ],
      [
        "Shuk",
        "la"
      ],
      [
        "Baghyawa",
        "ti"
      ],
      [
        "A",
        "ti"
      ],
      [
        "A",
        "ay"
      ],
      [
        "A",
        "yaan"
      ],
      [
        "B",
        "andi"
      ],
      [
        "D",
        "ate"
      ],
      [
        "D",
        "ha"
      ],
      [
        "D",
        "yal"
      ],
      [
        "D",
        "atta"
      ],
      [
        "D",
        "arika"
      ],
      [
        "D",
        "hil"
      ],
      [
        "E",
        "ta"
      ],
      [
        "H",
        "en"
      ],
      [
        "H",
        "riti"
      ],
      [
        "K",
        "ai"
      ],
      [
        "K",
        "anda"
      ],
      [
        "L",
        "ab"
      ],
      [
        "N",
        "ad"
      ],
      [
        "N",
        "ath"
      ],
      [
        "N",
        "et"
      ],
      [
        "Q",
        "adi"
      ],
      [
        "S",
        "wam"
      ],
      [
        "S",
        "achi"
      ],
      [
        "V",
        "o"
      ],
      [
        "V",
        "yan"
      ],
      [
        "Y",
        "at"
      ],
      [
        "d",
        "ba"
      ],
      [
        "e",
        "o"
      ],
      [
        "h",
        "ne"
      ],
      [
        "h",
        "ra"
      ],
      [
        "j",
        "it"
      ],
      [
        "j",
        "ana"
      ],
      [
        "l",
        "on"
      ],
      [
        "m",
        "ay"
      ],
      [
        "n",
        "bir"
      ],
      [
        "p",
        "ra"
      ],
      [
        "t",
        "ty"
      ],
      [
        "v",
        "raj"
      ],
      [
        "w",
        "hne"
      ],
      [
        "co",
        "b"
      ],
      [
        "st",
        "an"
      ],
      [
        "al",
        "ing"
      ],
      [
        "in",
        "athan"
      ],
      [
        "or",
        "ty"
      ],
      [
        "ne",
        "et"
      ],
      [
        "ur",
        "jit"
      ],
      [
        "ad",
        "urjit"
      ],
      [
        "do",
        "re"
      ],
      [
        "ru",
        "ta"
      ],
      [
        "ya",
        "k"
      ],
      [
        "rad",
        "har"
      ],
      [
        "ra",
        "f"
      ],
      [
        "ra",
        "vya"
      ],
      [
        "ak",
        "i"
      ],
      [
        "ak",
        "ha"
      ],
      [
        "Am",
        "ruta"
      ],
      [
        "ka",
        "sh"
      ],
      [
        "Sa",
        "whne"
      ],
      [
        "Bha",
        "vani"
      ],
      [
        "dh",
        "ara"
      ],
      [
        "dh",
        "arth"
      ],
      [
        "An",
        "and"
      ],
      [
        "Go",
        "yal"
      ],
      [
        "Na",
        "yak"
      ],
      [
        "Sh",
        "ravya"
      ],
      [
        "Chand",
        "er"
      ],
      [
        "Ba",
        "il"
      ],
      [
        "Krish",
        "nan"
      ],
      [
        "Se",
        "m"
      ],
      [
        "Se",
        "tty"
      ],
      [
        "Tan",
        "veer"
      ],
      [
        "Tan",
        "may"
      ],
      [
        "Pra",
        "kash"
      ],
      [
        "San",
        "ya"
      ],
      [
        "Sar",
        "an"
      ],
      [
        "Sar",
        "in"
      ],
      [
        "Sar",
        "raf"
      ],
      [
        "Ek",
        "aling"
      ],
      [
        "Ad",
        "ya"
      ],
      [
        "Var",
        "ty"
      ],
      [
        "Var",
        "ma"
      ],
      [
        "Gu",
        "nbir"
      ],
      [
        "Gu",
        "neet"
      ],
      [
        "Tri",
        "stan"
      ],
      [
        "Chak",
        "radhar"
      ],
      [
        "Jan",
        "aki"
      ],
      [
        "Vas",
        "ud"
      ]
    ]
  }
}